#version: 0.2
e n</w>
a a
d a
j a</w>
o o
e e
g e
e t</w>
aa r</w>
da t</w>
e r
i e</w>
u h</w>
i j
i k</w>
j e</w>
w a
d e</w>
e en</w>
e r</w>
n i
n o
d ie</w>
w e
c h
' t</w>
i s</w>
i n
m aar</w>
e n
h e
a l
a n</w>
. .</w>
. ..</w>
g g
i j</w>
s t
da n</w>
ni et</w>
a n
gg g</w>
o e
l e
oo k</w>
n e
we l</w>
i n</w>
o n
z e
v an</w>
t o
no u</w>
z e</w>
i e
ne e</w>
w ee
z o</w>
d u
aa n</w>
b e
x x</w>
l ij
o h</w>
x xx</w>
oo r</w>
ch t</w>
t en</w>
h ee
d er
o f</w>
o p</w>
du s</w>
i t</w>
d en</w>
g en</w>
t e</w>
no g</w>
m o
wa s</w>
v er
w e</w>
k en</w>
h a
s t</w>
wa t</w>
he b</w>
z o
lij k</w>
m et</w>
' k</w>
c h</w>
al s</w>
n t</w>
r e
a l</w>
m aa
b en</w>
r o
k o
m m
d aar</w>
w oo
ij n</w>
s ch
e l
d '
o r
ee r</w>
i g</w>
he b
wa nt</w>
ge n
d o
v en</w>
ge woo
gewoo n</w>
u i
v oor</w>
u r
mo et</w>
b ij</w>
' n</w>
e cht</w>
to ch</w>
ha d</w>
aa t</w>
wee t</w>
maa l</w>
h o
t je</w>
z ijn</w>
i en</w>
hee l</w>
d' r</w>
to en</w>
l a
' s</w>
f t</w>
heb ben</w>
m e
le maal</w>
oo r
d er</w>
r a
m a
aa r
d en
k an</w>
o p
d a</w>
h et</w>
t e
in g</w>
t s</w>
g oe
h ij</w>
t er
n aar</w>
i er</w>
d e
ee l</w>
k u
w i
m oe
l l
n a
t u
ee r
a r
k t</w>
m en</w>
r ij
o m</w>
wee r</w>
s p
goe d</w>
n en</w>
i s
l an
hee ft</w>
t ij
u h
g aan</w>
e i
v in
s en</w>
v er</w>
v eel</w>
mm m</w>
u k</w>
o l
d r
j e
n s</w>
k k
ie ts</w>
b ee
uh m</w>
u it</w>
tij d</w>
m en
z i
on d</w>
ge l
do en</w>
t er</w>
den k</w>
al l
m eer</w>
da g</w>
h u
an der
j ij</w>
ho e</w>
w er
ze g</w>
o u
h u</w>
k ij
g e</w>
w or
o m
zo 'n</w>
m ij</w>
t ig</w>
vin d</w>
h ier</w>
je s</w>
o ver</w>
ge en</w>
h oor</w>
z a
r i
he lemaal</w>
we e</w>
g aat</w>
g t</w>
u r</w>
w aar</w>
le uk</w>
e ven</w>
k e</w>
t wee</w>
tu ur
p a
k eer</w>
al lemaal</w>
tuur lijk</w>
gen s</w>
l i
d i
p en</w>
bee tje</w>
wa r
ei gen
v oor
me e</w>
t ten</w>
n u</w>
m e</w>
in gen</w>
eigen lijk</w>
- hu</w>
mm -hu</w>
v ol
ku n
k s</w>
zo u</w>
he l
ze l
gg en</w>
g a</w>
d it</w>
z it</w>
w ij</w>
an d</w>
d t</w>
al tijd</w>
st e</w>
ui t
m t</w>
na tuurlijk</w>
v ij
i l
on der
wi l</w>
ze i</w>
v r
g r
b r
en d</w>
kun nen</w>
a f
d aa
' ns</w>
v ond</w>
e l</w>
' m</w>
u ll
ko mt</w>
er en</w>
v a
m 'n</w>
hel e</w>
l d</w>
f f
h al
h oe
d den</w>
l aa
ge v
men sen</w>
a ch
aa n
m oo
moe ten</w>
n a</w>
d oor</w>
in der
en t</w>
heb t</w>
u ur</w>
m is
z ien</w>
t i
k a
v an
b o
hu is</w>
o u</w>
n et</w>
t jes</w>
ni ks</w>
l o
be d
dr ie</w>
b ij
oe l</w>
ko men</w>
e u
ha dden</w>
all een</w>
k rij
m ee
kij ken</w>
ze ggen</w>
ro u
ie s</w>
k an
d' r
j aar</w>
p ro
mis sch
g ing</w>
missch ien</w>
m i
a f</w>
t ien</w>
z al</w>
kk er</w>
zi tten</w>
st aat</w>
k wa
d s</w>
da cht</w>
war en</w>
wor dt</w>
ander e</w>
oo it</w>
z 'n</w>
s s
k ken</w>
t ie</w>
vol gens</w>
z en</w>
u l
zel f</w>
ander s</w>
w in
re c
k l
d ig</w>
d aar
ho u
er g</w>
ge d
k er</w>
z ij</w>
do e</w>
m ijn</w>
h an
ma g</w>
al le
we g</w>
ze gt</w>
t en
m and</w>
ge r</w>
on s</w>
b l
a u
ge wee
gewee st</w>
a p
m in
g d</w>
be g
om dat</w>
moo i</w>
d ingen</w>
ro m</w>
a h</w>
s sen</w>
o ver
m an</w>
ll en</w>
w aa
on t
w aar
st u
aa l</w>
vij f
k le
w ij
v i
v ier</w>
wor den</w>
n ooit</w>
le kker</w>
o k</w>
h oo
ge ze
k er
v en
ku n</w>
maa kt</w>
ull ie</w>
st aan</w>
ged aan</w>
k en
l en</w>
j on
j ullie</w>
kij k</w>
t re
e ff
ma ken</w>
te gen</w>
to e</w>
u s</w>
k e
ge ven</w>
g a
moe st</w>
r u
op en</w>
kwa m</w>
t a
do et</w>
s e</w>
ter u
be st</w>
za t</w>
alle s</w>
lan g</w>
j a
p rec
wee k</w>
eff e</w>
prec ies</w>
st en</w>
l aat</w>
ie mand</w>
t el
bed oel</w>
zo iets</w>
l ie
g ro
daa d</w>
z ie</w>
oor t</w>
ha r
inder daad</w>
g ra
g i
k r
st a
zi ch</w>
p er
aa k</w>
lan d</w>
ni eu
vij f</w>
we l
z on
h onder
de ze</w>
st r
b lij
sch oo
st i
j ou</w>
h aar</w>
ge no
d el
w ie</w>
ko n</w>
b a
d ing</w>
vr oe
ee ns</w>
v or
honder d</w>
in nen</w>
p p
s i
hal f</w>
t win
to t</w>
men t</w>
l u
ge had</w>
m er
v o
mo r
b ent</w>
i d</w>
ch t
b oe
laa t
eer st</w>
l ee
ie der
ni n
aa g</w>
ge le
zel f
gel oo
t rou
p u
k je</w>
eer d</w>
l de</w>
ko m</w>
h een</w>
b u
k aar</w>
l t</w>
M ar
p o
hee t</w>
ee n
e ten</w>
ze s</w>
woo r
st er
st el
ie k</w>
ge b
d je</w>
p t</w>
mi d
ge zien</w>
l oo
twin tig</w>
c i
t o</w>
s o
p r
de lijk</w>
s e
h ui
er gens</w>
maa n
teru g</w>
geloo f</w>
ge sp
ge be
g ul
bee ld</w>
p aar</w>
t wee
on den</w>
ku nt</w>
m a</w>
ne men</w>
ch ten</w>
ver der</w>
s la
z et</w>
ze ker</w>
p er</w>
s oort</w>
p ra
hu n</w>
we ten</w>
lan g
gul den</w>
b er
waa rom</w>
wer k</w>
ull en</w>
le u
k aar
mo ment</w>
ij n
s a
ge r
ge geven</w>
b an
t r
la ten</w>
k inder
st ee
oo t</w>
ur en</w>
w ou</w>
gel d</w>
t huis</w>
voor beeld</w>
ver tel
gev al</w>
m er</w>
a c
m u
wa n
wi llen</w>
on der</w>
n aa
h oor
hou den</w>
kan t</w>
in e</w>
moe der</w>
du i
v rou
geze gd</w>
ur t</w>
kk e</w>
krij g</w>
z oe
st ond</w>
t ie
oo n</w>
t te</w>
N e
el en</w>
an t</w>
ee d</w>
d oor
ie der</w>
ze tten</w>
bij voorbeeld</w>
g ingen</w>
mm er</w>
is ch</w>
st er</w>
mor gen</w>
ze ven</w>
wer ken</w>
v e</w>
o n</w>
ee m</w>
be t
v ri
i ge</w>
st e
den ken</w>
hal en</w>
d in
h er
te le
ou w</w>
n eer</w>
schoo l</w>
all e</w>
kinder en</w>
gro te</w>
sch i
ach ter
e lijk</w>
ieder een</w>
c a
n u
h aa
ge maakt</w>
op t</w>
der s</w>
an der</w>
v oe
ni e
in ter
lij kt</w>
v aak</w>
l open</w>
p i
moe i
z in</w>
hu m</w>
a cht</w>
w en</w>
v rij
en de</w>
el kaar</w>
eer ste</w>
s u
wer kt</w>
tu ssen</w>
st ig</w>
en en</w>
s ne
t s
li gt</w>
all en</w>
we ns</w>
Ne der
ra gen</w>
ge lijk</w>
r an
f o
v eer
k end</w>
a vond</w>
daa rom</w>
wer d</w>
i de
stee ds</w>
trou wens</w>
krij gen</w>
ja wel</w>
va der</w>
no r
be ter</w>
zelf de</w>
wi st</w>
oe p</w>
ach ter</w>
bij na</w>
zi et</w>
r y</w>
t oe
w on
me t
zo als</w>
en e</w>
pa s</w>
b innen</w>
in d</w>
A n
st ra
v al
c o
D e</w>
u w</w>
p ar
ge gaan</w>
zo veel</w>
za g</w>
b la
no e
i ni
he m</w>
a m
z ig</w>
ge br
vroe ger</w>
s je</w>
vol gen
w o
t t
au to</w>
st uk</w>
i r
nin g</w>
g ee
i c
wel ke</w>
vri en
waar sch
kl opt</w>
ne gen
er s</w>
va kan
k oo
w a</w>
m p
u n
jon gen</w>
r ui
p le
e x
bo ven</w>
ka mer</w>
ide e</w>
f il
d eed</w>
c om
ijn lijk</w>
no dig</w>
ko pen</w>
pro b
al en</w>
ze ven
met een</w>
vijf en
or en</w>
sch rij
vrou w</w>
waarsch ijnlijk</w>
v ragen</w>
nieu we</w>
t ra
lij ke</w>
der tig</w>
da gen</w>
ie s
v e
goe ie</w>
v el
moo ie</w>
kk elijk</w>
ge sch
ei gen</w>
da g
he id</w>
ne gen</w>
m an
e ss
oo d</w>
wan neer</w>
s dag</w>
leu ke</w>
j oh</w>
V an</w>
krij gt</w>
k te</w>
s l
' r</w>
ro ken</w>
i er
s na
be zig</w>
z ullen</w>
vijf tig</w>
hoe ft</w>
R o
tele f
in g
j ouw</w>
pra ten</w>
hoo p</w>
h e</w>
a ch</w>
vin den</w>
ge k
on ze</w>
gr oot</w>
a v
vakan tie</w>
sp r
st eren</w>
ui ten</w>
re gen</w>
val t</w>
daar na</w>
mid dag</w>
el ke</w>
e ni
J o
z iek</w>
wa ter</w>
w d</w>
vi er
E n
kl aar</w>
ee l
daa g</w>
blij ven</w>
t ter
h a</w>
e ven
ko cht</w>
ge re
vin dt</w>
s le
za ter
in t</w>
hoe veel</w>
vr ij</w>
min u
ko r
v is
lang s</w>
b oo
van daag</w>
me ter</w>
G o
vr aag</w>
min der</w>
volgen de</w>
laat ste</w>
har t
dui z
zo u
st o
p e
la ter</w>
be llen</w>
on d
li ggen</w>
d onder
vroe g</w>
p l
p laa
hoo f
dr aa
al weer</w>
kle in</w>
- uh
we ken</w>
n aar
ini g</w>
woor d</w>
sch a
c on
boe k</w>
sti kke</w>
stel len</w>
s om
k jes</w>
hart stikke</w>
F ran
ou ders</w>
duiz end</w>
k war
d'r bij</w>
naar toe</w>
-uh -
we g
n e</w>
geno e
f ie
d or
moe sten</w>
in n
gebr ui
sch e</w>
moei lijk</w>
e s</w>
on ds</w>
g oo
te l</w>
sta d</w>
p pen</w>
la ch
geno men</w>
b en
ur d</w>
geze ll
sne l</w>
p je</w>
hui s
ge zet</w>
n eem</w>
we inig</w>
me is
le ggen</w>
j ui
vor ige</w>
va st</w>
te gen
gra pp
gesp re
zou den</w>
t sen</w>
som s</w>
st al</w>
p re
zo r
t ro
kr ee
ko ff
een tje</w>
b ro
ar en</w>
veer tig</w>
p la
naa m</w>
Go d</w>
wa cht</w>
oo n
le zen</w>
zoe ken</w>
z ie
ou d</w>
el f</w>
X xx</w>
waa l
kwa men</w>
A r
wee kend</w>
minu ten</w>
k la
jui st</w>
h and</w>
min ste</w>
laat st</w>
kree g</w>
k el</w>
dr uk</w>
t waal
r e</w>
g an
s or
k i
gel ui
ge hoor
br u
str aat</w>
s en
k el
h aal</w>
sa men</w>
s c
mee stal</w>
beg in</w>
sla pen</w>
k a</w>
grapp ig</w>
gehoor d</w>
s er
pa kken</w>
p lan
r aar</w>
nor maal</w>
b i
wi lde</w>
vo l</w>
stra ks</w>
l ing</w>
ten minste</w>
k ent</w>
g o
av onds</w>
zater dag</w>
hoe f</w>
dr in
sp re
j aar
vrij dag</w>
nie mand</w>
du ur</w>
m el
da n
br en
t an
o en</w>
n ie</w>
loo pt</w>
t he
p aa
gr aag</w>
genoe g</w>
gel s</w>
a u</w>
ver schi
teru g
st an
fil m</w>
c ont
har d</w>
eer t</w>
a d
twaal f</w>
per s
b uiten</w>
sna p</w>
f e
rij den</w>
gezell ig</w>
op ge
nieu w</w>
m d</w>
gele den</w>
vertel len</w>
st el</w>
ma ni
b or
ar t</w>
t al</w>
bed rij
t zelfde</w>
kle ine</w>
de ur</w>
za ten</w>
l e</w>
ie l</w>
del en</w>
ch te</w>
be d</w>
zon dag</w>
sor ry</w>
le i
d ie
ge kocht</w>
f or
m b
le ven</w>
k eu
ho u</w>
da m</w>
wij l</w>
l in
d jes</w>
bl oe
al e</w>
B o
to 's</w>
ter wijl</w>
t af
re st</w>
ja mmer</w>
der en</w>
c en
won en</w>
telef oon</w>
gel u
be l</w>
a b
ou we</w>
ma r
han gen</w>
c t</w>
sp elen</w>
s h
Neder lan
r aa
q u
M i
on gev
n ee
gel open</w>
ge k</w>
ongev eer</w>
d'r in</w>
vr aa
sch ap
blij ft</w>
woo nt</w>
sp e
me kaar</w>
bet alen</w>
schrij ven</w>
mani er</w>
l ui
ge komen</w>
ma kkelijk</w>
haa ld</w>
tre in</w>
maan dag</w>
ach tig</w>
Neder land</w>
N ij
donder dag</w>
A l
gebe ld</w>
d s
c ol
w ies
wies o</w>
k ind</w>
ee k</w>
u t</w>
so wieso</w>
plaa ts</w>
ge ten</w>
ch ter</w>
ben e
t b
pro bl
p ri
o ch</w>
le s</w>
gr oe
a t
lach en</w>
k eer
zon der</w>
s laa
p e</w>
k oe
gr oep</w>
sp el
gespre k</w>
com pu
b aar</w>
aa s</w>
voor al</w>
van af</w>
sch ri
kaar t</w>
f ee
e in
b ou
J an</w>
p ol
ee lt</w>
naa st</w>
en s</w>
eer der</w>
bene den</w>
sle cht</w>
na me
meis je</w>
bed oe
all er
wa chten</w>
van avond</w>
zelf s</w>
r oo
ont ze
mu ziek</w>
wo en
vi a</w>
probl eem</w>
over al</w>
maa k</w>
i den</w>
nu mmer</w>
gi steren</w>
ver haal</w>
pr aat</w>
han dig</w>
g oh</w>
hoe zo</w>
u d</w>
p a</w>
gek regen</w>
dr u
C h
gr ond</w>
g la
v re
stu kje</w>
li cht</w>
gesp roken</w>
c e
v la
drin ken</w>
c ent</w>
mo cht</w>
mm a</w>
l eren</w>
hal ve</w>
b e</w>
wor d</w>
koff ie</w>
jon ge</w>
ge haald</w>
f iets</w>
bl ij</w>
st ap
re ven</w>
f ou
d oo
oe k</w>
ze stig</w>
tt end</w>
mm en</w>
k s
hui zen</w>
ge mee
f ijn</w>
z us</w>
s lo
hou t</w>
h oort</w>
ge worden</w>
H ar
vrien d
t achtig</w>
koo p</w>
k wij
hoof d</w>
du r
st je</w>
n eer
mm e</w>
h ier
ge wel
zoe k</w>
ontze ttend</w>
mo gen</w>
mo e</w>
maan den</w>
di cht</w>
d'r uit</w>
be paa
ll e</w>
inter ess
W il
v lie
uit en
su per
s li
i m</w>
h oren</w>
Nij me
twee de</w>
sch ij
pro gra
m een</w>
ka st</w>
hoo g</w>
br ie
am il
woo n
tie f</w>
i t
ge lij
ch tig</w>
bren gen</w>
maan d</w>
f amil
di ge</w>
Nijme gen</w>
M a
vertel d</w>
n ergens</w>
la st</w>
kk er
gi ster</w>
aar dig</w>
z war
op pen</w>
gele zen</w>
c u
be l
D uit
z u
z in
vor en</w>
voe tb
st a</w>
mee nemen</w>
k il
jon gens</w>
ieder e</w>
d eel</w>
b us</w>
aan tal</w>
wer k
k onden</w>
f a
beg innen</w>
S ch
sch e
woen sdag</w>
ko st</w>
e ind</w>
den kt</w>
beg int</w>
be i</w>
wij s</w>
ra cht</w>
inn en
gemee n
fo to</w>
fo to's</w>
c e</w>
alle bei</w>
B a
voor dat</w>
kwar t</w>
hoor de</w>
din sdag</w>
b innen
H e
ker s</w>
gee ft</w>
al s
A m
tre kken</w>
ti g
taf el</w>
pu n
in ge
i l</w>
famil ie</w>
el d</w>
an t
voor stellen</w>
s y
re gel
k lo
goe d
even tjes</w>
er t</w>
vor ig</w>
prob eren</w>
m te</w>
d'r op</w>
A mer
z we
spre ken</w>
w ijn</w>
st om</w>
pu nt</w>
pa k</w>
ni s</w>
dui delijk</w>
b ur
ach t
twee n
t isch</w>
st and</w>
sch o
bu urt</w>
aa l
zeven tig</w>
t aal</w>
ne tjes</w>
kwij t</w>
kr ant</w>
gebrui ken</w>
e ur
war m</w>
name lijk</w>
mid del
kor t</w>
cht end</w>
b and</w>
ver di
uit ge
t y
r ond</w>
p en
da ga
tr a</w>
le ver
kk ig</w>
ee t</w>
col le
bedrij f</w>
z ul
r oe
on nen</w>
nin gen</w>
f i
b uiten
R u
R e
vijf tien</w>
u ur
loo p</w>
gewel dig</w>
en twintig</w>
del ing</w>
n d</w>
la g</w>
l den</w>
di rec
daga vond</w>
r ie
l ig</w>
vraa gd</w>
s ol
ke ken</w>
gev oel</w>
gelu kkig</w>
ge l</w>
Am ster
z ui
van middag</w>
t al
ni s
lo g
ge vraagd</w>
I n
tu in</w>
om a</w>
dr ie
vijfen twintig</w>
m il
sp or
n ja</w>
le i</w>
hou dt</w>
eni ge</w>
' tzelfde</w>
ken de</w>
ge won
f la
el s</w>
de zelfde</w>
cht ing</w>
b ie
stu den
s in
pr in
g ij</w>
dag s</w>
zi cht</w>
ter s</w>
kij kt</w>
geze ten</w>
gesch reven</w>
d is
z en
ss en
g u
g aa
eur o</w>
din ge
An ne
ze iden</w>
vriend in</w>
tan te</w>
ru stig</w>
re la
mm el</w>
mb er</w>
lie p</w>
l a</w>
ker k</w>
hoo g
de l</w>
ver ander
r en
ma ch
aller lei</w>
ver vel
v allen</w>
st onden</w>
r en</w>
mi c
men s</w>
ken nen</w>
af gelopen</w>
af ge
wel k</w>
v all
u w
t ri
t ies</w>
sp an
j o
daar voor</w>
d oe
c ur
be tre
b oel</w>
s jes</w>
noe men</w>
ie ke</w>
bet aa
woor den</w>
verschi ll
tu ur</w>
ter en</w>
sch aa
negen tig</w>
m is</w>
ko ud</w>
k ing</w>
ex tra</w>
di en
v al</w>
u m</w>
rui mte</w>
p oe
k ie
gebe urt</w>
gan g</w>
e chte</w>
c ar
be te
be lang
m p</w>
j aren</w>
gr aan</w>
ban k</w>
ver jaar
te voren</w>
lie ver</w>
keu ken</w>
fou t</w>
d y</w>
d on
compu ter</w>
bepaa lde</w>
T V</w>
Har ry</w>
ui te
te it</w>
h o</w>
dr i
d i</w>
co mm
ch ten
b ar
L e
win kel</w>
to r</w>
rij k</w>
po t</w>
noe m</w>
nee mt</w>
kaar ten</w>
k no
gr ond
gebe uren</w>
fie tsen</w>
d -
P e
tele vis
tegen woor
negen tien</w>
ma ma</w>
ma il
ch e
bu re
boe ken</w>
beg onnen</w>
Jo h
Amster dam</w>
ze sen
wi lt</w>
wa ter
t on
bla uw</w>
Duit s
za k</w>
sp el</w>
kle in
gee f</w>
ge st
den s</w>
d aan</w>
P ie
H an
spe ci
se lijk</w>
pa kt</w>
oo l</w>
han d
b re
a tie</w>
Nederlan ds</w>
progra mma</w>
m on
ke lijk</w>
h ond</w>
g au
de den</w>
P a
zor gen</w>
ver schri
veer tien</w>
uite in
mic ro
er tje</w>
el k</w>
z ij
verjaar dag</w>
v iel</w>
uitein delijk</w>
mi ni
j ar
hee r
h all
ge werkt</w>
ch ts</w>
an je</w>
aar d</w>
van uit</w>
ti en
mo gelijk</w>
kk e
hall o</w>
pri ma</w>
kaar tje</w>
k op</w>
b aan</w>
V er
z aak</w>
vervel end</w>
verschill ende</w>
so mm
schij nt</w>
micro f
c lu
c k</w>
br ood</w>
Amer i
ver geten</w>
oo m</w>
gau w</w>
betre ft</w>
b oot</w>
tegenwoor dig</w>
p laat
p jes</w>
lij ker</w>
hee tte</w>
ach ten
aan ge
L i
oor d</w>
o chten
nu l</w>
me zelf</w>
dor p</w>
bo ven
bo s</w>
S p
verschri kkelijk</w>
ver k
lei ding</w>
le kker
lan ger</w>
l s</w>
hel pen</w>
G e
ti on</w>
schoo n
ll i
le tje</w>
ken en</w>
je e</w>
beg rij
D a
S t
R a
En gels</w>
vri end</w>
u ut</w>
the e</w>
t hee
st oppen</w>
s ie</w>
geb ie
g s
g eel</w>
f l
br oek</w>
wi kk
ver tel</w>
t h</w>
sh it</w>
scha p</w>
oo st</w>
lan ge</w>
ger s</w>
g in
g al</w>
er ts</w>
ee ld</w>
da delijk</w>
B e
v ies</w>
pa pa</w>
le g</w>
ij s</w>
eer de</w>
be ste</w>
Fran s</w>
vre selijk</w>
v ar
u ni
trou wd</w>
ti ge</w>
sch il
ro ver</w>
lee s</w>
le tter
kl in
k ra
ing s
in eens</w>
f de</w>
f an
bete kent</w>
vall ig</w>
ple k</w>
kil o
hoof d
gele gd</w>
be lde</w>
ar i</w>
G er
st rij
schap pen</w>
lui steren</w>
gla s</w>
cont ac
blij f</w>
wi tte</w>
vr ee
u l</w>
toe vallig</w>
televis ie</w>
stel ling</w>
na cht</w>
lu kt</w>
le den</w>
kr ui
goo ien</w>
fee st</w>
bro er</w>
D en</w>
zo n</w>
twee honderd</w>
tij dens</w>
st uur</w>
sol uut</w>
s eu
re cht</w>
p rij
gebrui kt</w>
f d</w>
du urt</w>
da pp
ber t</w>
beg on</w>
J an
H en
zo maar</w>
z aa
wa kker</w>
vertel de</w>
t ru
t .</w>
pra chtig</w>
mar kt</w>
keer tje</w>
gev allen</w>
gelui d</w>
f un
dien st</w>
bure au</w>
bur g</w>
Wil le
ze ker
t tig</w>
ro l
re i
pun ten</w>
pro cent</w>
p el
m ond</w>
lij n</w>
k ni
he le
gev onden</w>
ge dacht</w>
der de</w>
boo d
ab soluut</w>
J e
we zen</w>
st isch</w>
sp ullen</w>
re delijk</w>
l er
d ij
bou wen</w>
ban dje</w>
b in
achter grond
vrien den</w>
verk eerd</w>
van daan</w>
st ien</w>
s s</w>
ri t
ri l</w>
r on
prin ci
ochten ds</w>
he den</w>
gebie d</w>
f je</w>
du b
do m</w>
d se</w>
Pie ter</w>
Mi ch
C or
ver p
t ier</w>
pol i
pa st</w>
k baar</w>
her inn
du ur
d ood</w>
d o</w>
U tre
B ar
z ingen</w>
waar t</w>
sp eelt</w>
sch u
r ond
pa ssen</w>
interess ant</w>
hoe ven</w>
h i
ge trouwd</w>
dr on
T he
N ie
L u
L a
zon de</w>
w een</w>
v ie
v ent</w>
tu ssen
st or
sla g</w>
r ood</w>
princi pe</w>
p s
nieu w
m o</w>
le tjes</w>
ko m
gro en</w>
gebe urd</w>
ge we
even tu
ee f</w>
e nor
draa ien</w>
b al</w>
b al
vlie g
v oel</w>
v a</w>
t -
stel d</w>
somm ige</w>
slaa p
sch eelt</w>
s ch</w>
m s</w>
ker st
ke ning</w>
ka mer
j ee
inter net</w>
br an
ap art</w>
Duits land</w>
vrou wen</w>
ver l
ti on
telef oon
sta tion</w>
mor gens</w>
he i
g or
do u
acht tien</w>
ze stien</w>
wa ssen</w>
st ij
or ga
oo i</w>
mi dden</w>
ko ken</w>
kan s</w>
ge keken</w>
ban g</w>
R i
w it</w>
verschi l</w>
st uren</w>
pro je
kla s</w>
hele boel</w>
gi ster
gemeen te</w>
gaa f</w>
ca de
boe kje</w>
aar dapp
wa s
vla k</w>
v onden</w>
u we</w>
sa men
ra di
pl an</w>
lee m</w>
k regen</w>
hel ft</w>
geb ou
en g</w>
eer lijk</w>
d' ra
Utre cht</w>
J oost</w>
B el
zo mer</w>
x x
we d
v ullen</w>
u ik</w>
spr aak</w>
mee ste</w>
l oe
han gt</w>
ger en</w>
f le
er d</w>
e -
ch i
ap par
J u
J ac
t ween</w>
sch er
r is</w>
na men</w>
mer k</w>
k eren</w>
jon g</w>
je zelf</w>
fun c
ch e</w>
bu ur
N ic
B er
v o</w>
te s</w>
t h
st re
i de</w>
ge meen</w>
daar mee</w>
brie f</w>
aa tje</w>
a g
wij k</w>
v lo
t a</w>
st en
po si
pers oon</w>
o r</w>
o g
m uur</w>
kwar tier</w>
kilo meter</w>
gen e</w>
e le
ba s
a m</w>
T he</w>
A V
z eer</w>
x i
woon de</w>
we gg
to n</w>
te geno
t ter</w>
scho enen</w>
op en
no gal</w>
ma kke
m de</w>
laa s</w>
k ei
han den</w>
haa st</w>
gebr uik</w>
der ij</w>
dan k</w>
c o</w>
bo men</w>
b b
H o
st ru
re s</w>
p s</w>
mid dags</w>
mee genomen</w>
gr oo
eventu eel</w>
du c
daar van</w>
bo er
ba k</w>
vier en
tij dje</w>
t ent</w>
stu urd</w>
seu m</w>
ra re</w>
ou der</w>
oo g</w>
nieu wd</w>
k on
da chten</w>
d ien</w>
betaa ld</w>
aar t</w>
Mar t
zie ken
zi ch
vi de
u wen</w>
t ar
stu d
sli m</w>
schaa p</w>
rij dt</w>
pa ra
oo s</w>
ma m</w>
geb ouw</w>
ei den</w>
direc t</w>
T ur
M e
zul ke</w>
volgen d</w>
st oe
slo ten</w>
ni g</w>
n er</w>
lu cht</w>
log isch</w>
lin k</w>
lee f
in for
ge geten</w>
d'r aan</w>
af deling</w>
wer kte</w>
ver eni
s n
p ijn</w>
na me</w>
maa kte</w>
laa g</w>
k na
ge zicht</w>
daar door</w>
bood schappen</w>
be nieuwd</w>
b erg</w>
au to
ander en</w>
aan se</w>
Pe ter</w>
z a</w>
ver si
trou wen</w>
sta ge</w>
st oel</w>
schi et</w>
pa pi
lo g</w>
j an
i r</w>
i kke</w>
gel uk</w>
gel o
en t
d'r voor</w>
c a</w>
bru in</w>
boo m</w>
b lo
B ra
van morgen</w>
st ri
re den</w>
ou der
on en</w>
ne tje</w>
n o</w>
mach ine</w>
lever en</w>
ge tje</w>
f ri
ee s</w>
M o
M aa
I tal
z onder
z innen</w>
wi lden</w>
t st</w>
stu deren</w>
si g
sch r
s laat</w>
s f
pra k
oe h</w>
mil j
ie f</w>
heer lijk</w>
he u
he tzelfde</w>
goo id</w>
e e</w>
d ik</w>
C D</w>
vi eren</w>
un i</w>
te k
t her
ster s</w>
sla gen</w>
sin ds</w>
oe g</w>
nie ts</w>
milj oen</w>
ku t</w>
kie zen</w>
ge houden</w>
fan ta
dron ken</w>
d ra
c or
belang rijk</w>
ar ts</w>
ar d</w>
E n</w>
x e
ten ta
moei te</w>
kan t
k in
gelij k
contac t</w>
al i
z an
vree md</w>
spr ee
schoo n</w>
ont wikk
ol en</w>
ne t
ma il</w>
lij k
ko sten</w>
k li
gev oe
ge ri
door heen</w>
ch ter
z er</w>
ui ter
u s
twee duizend</w>
t huis
sp ul</w>
p per
p ie
ou d
men eer</w>
ll er</w>
kaar tjes</w>
gewon nen</w>
ge gooid</w>
een en
drie honderd</w>
be lt</w>
als of</w>
Ba s</w>
z waar</w>
waar d</w>
ver kocht</w>
te ur</w>
stu kken</w>
stu die</w>
roo ie</w>
ro ze</w>
ri chting</w>
or anje</w>
lekker e</w>
l tje</w>
k lan
k eek</w>
jee tje</w>
ic k</w>
die p
ba d</w>
zo dat</w>
va ker</w>
v ei
ta s</w>
se c
s us</w>
nin g
me i</w>
man a
lan den</w>
l op
ken s</w>
ger e</w>
g heid</w>
der tien</w>
blij kbaar</w>
a 's</w>
S a
L ies
z oon</w>
z aal</w>
win kel
we n
ver ga
tegeno ver</w>
t ste</w>
t is</w>
t he</w>
s el</w>
r t</w>
r ie</w>
po st
mu seum</w>
me vrouw</w>
m in</w>
letter s</w>
klo k</w>
klin kt</w>
in e
di kke</w>
be kend</w>
be hoor
b ier</w>
Z ui
D i
C a
wer den</w>
we ge</w>
stap pen</w>
sp eel
pl us</w>
mee gemaakt</w>
lo s</w>
lee k</w>
kun de</w>
geb racht</w>
ff en</w>
een maal</w>
di cht
d'r van</w>
bor d</w>
au l</w>
P i
P aul</w>
Ameri ka</w>
zwe mmen</w>
wi ss
wer eld</w>
voor t</w>
strij d</w>
sta ur
ser ie
plaat sen</w>
om hoog</w>
k waa
j u
in en</w>
h y
gister avond</w>
gere den</w>
g i</w>
di gen</w>
bedoe lt</w>
b uren</w>
Ro tter
K a
E l
xe d</w>
v el</w>
uur tje</w>
twin tig
st een</w>
sp ij
op nemen</w>
o chtend</w>
nie k</w>
k o</w>
hui sje</w>
f li
di gd</w>
d ver
ber ei
ander half</w>
The o</w>
Rotter dam</w>
En gel
C ar
waar van</w>
voe lde</w>
thee k</w>
t ing</w>
spor t</w>
sl aan</w>
sch ei
s ei
raa d</w>
r ij</w>
o ff
maa t</w>
kle ur</w>
ka pot</w>
infor ma
ge t
f u
dri en
bij zonder</w>
G ro
F e
B re
AV O</w>
A le
zwar t</w>
ze s
wan delen</w>
voe lt</w>
tru m</w>
tre kt</w>
studen ten</w>
ss ie</w>
span n
ser ie</w>
s aa
re kening</w>
re is</w>
r is
op halen</w>
op a</w>
o gen</w>
microf oon</w>
man nen</w>
ma tig</w>
lu i</w>
la stig</w>
je u
h or
h on
gro ter</w>
gewon e</w>
gere geld</w>
ged eel
ee p</w>
br oo
bou w
bla d</w>
be urt</w>
be denken</w>
a ha</w>
D or
C D
zo cht</w>
voor bij</w>
ver zeker
ver wacht</w>
u ze</w>
tu ig</w>
to f</w>
so ci
rela xed</w>
radi o</w>
raa m</w>
prob le
ou den</w>
ne s</w>
jar ig</w>
inter k
gebou wd</w>
ge land</w>
dr an
ch o
c ool</w>
behoor lijk</w>
al gemeen</w>
T o
Mar ij
H a
zich zelf</w>
te i
t han
si mp
sch ui
s al
onder wer
oe f
mm ers</w>
k aas</w>
hoe wel</w>
gra tis</w>
ge staan</w>
ch en</w>
begrij p</w>
be ste
En geland</w>
wed strijd</w>
va st
va k</w>
ter e</w>
sti l</w>
st op</w>
serie us</w>
s oep</w>
s m
p or
orga nis
negen en
makke lijker</w>
kwaa d</w>
koff ie
k n
ir e</w>
hu l
don ker</w>
do mme</w>
clu b</w>
ci eel</w>
bl ie
be dacht</w>
b li
J or
E r
voetb allen</w>
u ro
tt ing</w>
ss e</w>
qu a</w>
plan nen</w>
pa p
p aar
om e</w>
kr an
ke s</w>
goo i</w>
f link</w>
er bij</w>
do ende</w>
do chter</w>
d'ra f</w>
d heid</w>
c t
Zui d-
S j
Ro b</w>
Han s</w>
Ar n
Al bert</w>
zwe m
zie lig</w>
verga der
ur s</w>
ste ken</w>
ro l</w>
prij s</w>
par t
op leiding</w>
me s</w>
maa rt</w>
h ie
gesp eeld</w>
ga ten</w>
g ste</w>
el e</w>
eff e
cur sus</w>
con c
cen trum</w>
bij zonder
bedoe ling</w>
b ouw</w>
b enen</w>
b bel
achtergrond .</w>
Wille m</w>
W er
O o
zieken huis</w>
w ie
voor uit</w>
v is</w>
tre k</w>
sp ra
sl a</w>
pap ier</w>
on wijs</w>
ne ke</w>
na m</w>
m ul
lij st</w>
leef tijd</w>
ir rit
hoe k</w>
gewe nd</w>
ge nt</w>
f les</w>
en .</w>
el ing</w>
de s</w>
da r
be halve</w>
W i
F l
B art</w>
ze e</w>
y ou</w>
vel d</w>
v ui
v lees</w>
u we
t ho
st jes</w>
ro t
re kenen</w>
ra g</w>
poli tie</w>
p te</w>
p in
onder zoek</w>
me l</w>
lin ks</w>
le tten</w>
krij k</w>
jan u
ij den</w>
ie st</w>
goed koop</w>
ge ra
g rij
fanta stisch</w>
er uit</w>
er ger</w>
en e
b er</w>
W a
K o
Joh an</w>
J er
z ooi</w>
vol gen</w>
ver keer
tro kken</w>
to ren</w>
to er
schrij f</w>
regel en</w>
pers oon
p lo
p iek</w>
na chts</w>
mor gen
mo chten</w>
lee g</w>
ke ur
in vullen</w>
gro ene</w>
dinge tjes</w>
c k
br ui
blie ft</w>
ba kken</w>
ap ril</w>
Nederlan dse</w>
Jo s</w>
B ru
zwar te</w>
verdi enen</w>
verander d</w>
v aag</w>
te ch
stu s</w>
st aan
rec la
re cht
proble men</w>
plaa tje</w>
p an
onder tussen</w>
ne us</w>
mp je</w>
men ten</w>
mel k</w>
m ja</w>
lij ks</w>
lee g
l ull
l eer
kil o</w>
janu ari</w>
fee stje</w>
c ij
bro ertje</w>
ba d
au to's</w>
af gesproken</w>
W im</w>
S te
G rie
Fran krijk</w>
D ui
Arn hem</w>
Ar j
zor g</w>
vlieg tuig</w>
ter echt</w>
t ja</w>
ster k</w>
ss i
s ur
ru st</w>
re staur
prob eer</w>
over heen</w>
op zoeken</w>
op genomen</w>
lij stje</w>
lie pen</w>
l en
kni ppen</w>
ker el</w>
ge z
ga t</w>
g s</w>
da k</w>
c af</w>
bet aal</w>
ba b
au gu
T ru
N oor
L o
Da vi
A fri
zeven tien</w>
z i</w>
wi sten</w>
wee r
to r
str and</w>
ste m</w>
si te</w>
re pen</w>
ple in</w>
oo p</w>
meis jes</w>
lie f
lach elijk</w>
la st
kl eren</w>
irrit ant</w>
gro en
ge stuurd</w>
ge p
g je</w>
dr a</w>
do k
car na
c ul
be lachelijk</w>
St ijn</w>
P ar
H er
En sche
we gen</w>
vlie gen</w>
ver gee
va no
tussen door</w>
tra i
t ten
stan daar
speci aal</w>
sc ri
s k
ro mmel</w>
pro duc
p tie</w>
ni ve
neer zetten</w>
ler aar</w>
k elen</w>
is s
ieder ik</w>
herinn eren</w>
he ten</w>
goed ko
gewoo nd</w>
geb oren</w>
ge praat</w>
f in
en zo
e i</w>
di a</w>
de gene</w>
bl eef</w>
b ier
augu stus</w>
Ensche de</w>
Davi d</w>
D iederik</w>
C o
vol doende</w>
ver en</w>
ver d
van gen</w>
v eel
sne ller</w>
si tu
rui len</w>
ru g</w>
pa p</w>
over dag</w>
na denken</w>
mo gelijk
kom st</w>
kan ten</w>
kamer s</w>
informa tie</w>
hou d</w>
g ri
fla uw</w>
di th</w>
c r
c el
be staat</w>
bar e</w>
ar ti
ar m</w>
Jer oen</w>
Je zus</w>
He ijn</w>
zeven en
waar door</w>
w o</w>
w in</w>
voor t
v et</w>
tr iest</w>
sy stee
sto f
spann end</w>
sch ie
pa st
p sy
oor log</w>
on zin</w>
nieuw s</w>
n y</w>
m ing</w>
k we
k oor</w>
i d
hou ding</w>
daar op</w>
d' rover</w>
c es</w>
ber oe
be stuur</w>
ant woord</w>
W ie
W C</w>
M aar
D er</w>
Ch ri
ze sti
wij f
wa gen</w>
vijfen dertig</w>
vergee t</w>
tu in
to taal</w>
ter i
spree kt</w>
s nee
pp er</w>
over leden</w>
op mer
op eens</w>
la s</w>
k al
je blieft</w>
i o
gelui den</w>
gedeel te</w>
ele k
dag middag</w>
d'r mee</w>
cade au
binnen kort</w>
bi o
W e
Re m
N an
E uro
D e
war e</w>
ver t
vano chtend</w>
v loe
tu m</w>
su per</w>
ss ing</w>
scha pen</w>
r ing</w>
pre ttig</w>
ou de</w>
nive au</w>
n oor
mi st</w>
mb ur
m ie</w>
le lijk</w>
haa lt</w>
gi t
ge doe</w>
g h
g af</w>
ein de</w>
cen tr
als jeblieft</w>
N a
w er</w>
vide o
vergader ing</w>
ver war
tre den</w>
tel len</w>
sp ee
so lli
solli ci
schrij ft</w>
s -
rei zen</w>
proje ct</w>
prob eerd</w>
pro f
pla sti
pa uze</w>
oo g
on g</w>
mm el
lull ig</w>
kna p</w>
hu p</w>
ho l</w>
gra pje</w>
ge zon
ge s</w>
g un
fi g
er in</w>
enor m</w>
ein delijk</w>
daar in</w>
ch tje</w>
br oe
bl a</w>
aar dige</w>
aa m</w>
V i
S i
L in
K oen</w>
D ick</w>
Ch ris</w>
A u
za gen</w>
vrou w
vo eren</w>
vereni ging</w>
ver za
tri vi
ti ende</w>
st enen</w>
s ui
s om</w>
rui m</w>
re chts</w>
pa gin
p te
op name</w>
le ven
ker ing</w>
interk laas</w>
in leveren</w>
ho ge</w>
hel aas</w>
gra s</w>
duur der</w>
c ten</w>
belang rij
bee l
ant woor
Nie ls</w>
L an
D ir
Bel gi</w>
win d</w>
wij ze</w>
ver halen</w>
ver diep
van wege</w>
uit leggen</w>
tr an
t se</w>
sto mme</w>
st of</w>
slaa p</w>
schi tter
schap p
s no
regel matig</w>
re is
r eed</w>
op nieuw</w>
n oo
middel s</w>
m eer
j uni</w>
ijn e</w>
ide aal</w>
ho i</w>
heu gen</w>
h uren</w>
h of</w>
h er</w>
ge heugen</w>
ge dronken</w>
ga st</w>
er var
enzo voort</w>
dinge tje</w>
d racht</w>
ch tjes</w>
boven dien</w>
bepaa ld</w>
be last
b ra
appar aat</w>
al i</w>
a s</w>
Sp anje</w>
Marij ke</w>
Mar ieke</w>
Engel se</w>
zu sje</w>
z ing</w>
z ee
vrij e</w>
voor deel</w>
vla k
ver zinnen</w>
uni versi
to t
tenta men</w>
tek st</w>
te kenen</w>
te am</w>
ta tie</w>
str aa
st il
spel letje</w>
s ki
s a</w>
ro de</w>
pre sen
p el</w>
leu ker</w>
la gen</w>
l o</w>
kor te</w>
ko pje</w>
ko men
k se</w>
k nie</w>
ho tel</w>
ho ger</w>
ge steld</w>
ga sten</w>
fie ts
fe bru
febru ari</w>
f en</w>
enor me</w>
du re</w>
dij k</w>
daar heen</w>
d re
bl eek</w>
be w
be kijken</w>
achter grond</w>
T i
T -
S u
Mar i
J a
D el
Bra ban
Bo sch</w>
zaa m</w>
z er
y es</w>
vlo er</w>
vlak bij</w>
vijf honderd</w>
verkeer de</w>
ti sche</w>
than s</w>
t eerd</w>
st op
sp i
saa i</w>
re a
progra mm
or t</w>
op er
ol og
microf oon
me de
mail tje</w>
maa t
m ale</w>
li et</w>
lang s
l er</w>
kk ers</w>
kij e</w>
in middels</w>
ha m</w>
gen d</w>
ge probeerd</w>
ge men
ge ko
g ol
el tje</w>
do l
d oek</w>
d .</w>
com bin
colle ge</w>
c ri
bl ik</w>
ar be
Z ee
N i
H u
Dir k</w>
B u
B r
B ert</w>
Afri ka</w>
ze il
wee ken
vraa gt</w>
vier kan
ver kopen</w>
ul i</w>
tie ve</w>
te lijk</w>
t je
stru c
str ee
sto ken</w>
se pte
qu e</w>
prof ess
per fe
pen si
or de</w>
on a</w>
lie dje</w>
lan d
ja s</w>
j uli</w>
in a</w>
he e</w>
har d
groo tste</w>
g ar
er ing</w>
e cht
dok ter</w>
din ge</w>
der ij
dan sen</w>
bla uwe</w>
bee lden</w>
bedrij ven</w>
au s</w>
Mar k</w>
H AVO</w>
D o
Anne mar
- xxx</w>
voe len</w>
ve mber</w>
u i</w>
tween twintig</w>
systee m</w>
stu ur
standaar d</w>
septe mber</w>
se ni
ru zie</w>
re l</w>
ra men</w>
q ui
prak tisch</w>
po st</w>
or en
op schrijven</w>
on al
o ni
no vember</w>
no n
ma ker</w>
le g
l ingen</w>
ki p</w>
il s</w>
gez ond</w>
genoe md</w>
g ie</w>
g al
fa br
fabr iek</w>
er op</w>
en kel
dru kken</w>
dis cu
de lijke</w>
daa l</w>
da tum</w>
cont ra
carna val</w>
ca mp
blij kt</w>
beg repen</w>
b aas</w>
al thans</w>
S ta
Ru ud</w>
Nic o</w>
Mich a
L y
K e
Ju dith</w>
Duit se</w>
ze l</w>
za ken</w>
vrien dje</w>
vor m</w>
voor lop
vier honderd</w>
vier de</w>
verdi ent</w>
vakan tie
v ro
v ing</w>
v in</w>
uit no
t ui
stel t</w>
st ro
si a
schoo l
pp en
p uur</w>
onder weg</w>
mer kt</w>
m pen</w>
la ge</w>
koo kt</w>
kin dje</w>
ki ppen</w>
ker st</w>
ka mp</w>
k ie</w>
k ar
han del
gespre kken</w>
gelu kt</w>
ge draa
g ooit</w>
func tion
er aan</w>
draa it</w>
doo d
de ce
buiten land</w>
boo s</w>
b o</w>
at ri
ar te</w>
al ing</w>
a gen
Tur kije</w>
Ma ur
Ital i</w>
E d
D en
Annemar ie</w>
zo ver</w>
zo lang</w>
x -
win nen</w>
we ten
vier entwintig</w>
t ur
stoe len</w>
st opt</w>
ss el</w>
slaap kamer</w>
sh ir
schie ten</w>
ru g
plasti c</w>
past oor</w>
op name
on eel</w>
mer s</w>
mee ster</w>
lu l</w>
lie f</w>
li ch
kwa li
ko p
kle uren</w>
kl eed</w>
hou sia
hal f
gelij ks</w>
gel eerd</w>
geb re
ge zin</w>
ge lijke</w>
fe it</w>
f f</w>
er en
ent housia
dr ien</w>
der e</w>
dece mber</w>
cij f
ca mer
bu ff
ber gen</w>
be le
ap para
ap arte</w>
all er</w>
af stand</w>
ac tie</w>
T a
S M
F r
B i
zie k
y en
woo n</w>
we lijk</w>
w i</w>
ver kering</w>
va ste</w>
twintig ste</w>
tot dat</w>
to p</w>
ti ger</w>
te vre
str oo
st ant</w>
s ho
restaur ant</w>
rela tie</w>
pi z
p oo
on geluk</w>
o erd</w>
ne lijk</w>
mee st</w>
kun st
ko u
kle ur
hy po
gi sche</w>
gi gan
f ei
ervar ing</w>
el l
dur en</w>
dub bel</w>
dor pje</w>
conc ert</w>
ci r
bru g</w>
bo er</w>
ber i
bed rag</w>
b laa
b een</w>
al lang</w>
achter af</w>
aa p</w>
S an
R ij
M on
M il
Dui ts</w>
B O</w>
Ameri k
zul k</w>
zo en</w>
zin gt</w>
y 's</w>
waar op</w>
waar in</w>
voetb al</w>
vijfen zeventig</w>
vierkan te</w>
ver volgens</w>
ver lie
ver b
v aart</w>
tij d
the or
tevre den</w>
spor t
sne l
situ atie</w>
s maak</w>
s ma
s leu
recla me</w>
pr aa
posi tief</w>
plan t</w>
perfe ct</w>
pa kk
or tu
op lo
onderwer p</w>
nu mmers</w>
leu ks</w>
lee st</w>
le in</w>
ko mma</w>
kl aar
ka t</w>
k ste</w>
hul p</w>
ho l
har de</w>
gest opt</w>
ge pakt</w>
g o</w>
er ig</w>
en vel
dur f</w>
dor ps
daar bij</w>
d' ro
d ragen</w>
ch tige</w>
bren gt</w>
b ril</w>
b allen</w>
ander som</w>
am b
aan dacht</w>
aan bie
S e
O -
M u
Li mbur
H el
z wan
win ter
wij n
voorlop ig</w>
vie ze</w>
verp licht</w>
uit zoeken</w>
ty p
tij den</w>
tien honderd</w>
ther ap
te gelijk</w>
t oon
t in
stu kjes</w>
scri ptie</w>
schitter end</w>
re gen
par keer
papi er
p lu
ont bij
off i
mp jes</w>
ma s</w>
lu n
l eer</w>
komen de</w>
ko st
kant oor</w>
ka ss
k i</w>
j ur
hel pt</w>
groe ien</w>
gi ds</w>
gele gen</w>
geb roken</w>
geb leven</w>
er van</w>
en er
dran k</w>
dou che</w>
don ker
direc teur</w>
d war
d r</w>
d der</w>
colle ga</w>
br ee
bo ve
bo eren</w>
bee sten</w>
be le</w>
al is
Sch a
Micha el</w>
Jan -
J o</w>
I J
Grie ken
D u
Anne m
wo ning</w>
was machine</w>
vo lle</w>
verander en</w>
ver huizen</w>
typ isch</w>
tr oep</w>
to cht</w>
ti meter</w>
ter ra
tel s</w>
sui ker</w>
su b
st ie</w>
soci aal</w>
simp el</w>
s noe
ru is</w>
rij st</w>
re e</w>
re d</w>
r ook</w>
r it</w>
pers onen</w>
per io
pa d</w>
op dracht</w>
offi cieel</w>
nor male</w>
na tuur
mo r</w>
me id</w>
man s</w>
lijk heid</w>
koo pt</w>
k ach
in tje</w>
ic o</w>
gr ens</w>
gr eep</w>
gla zen</w>
geri ts
ge weten</w>
ge vol
ge gev
ga dver
fil ms</w>
fie tst</w>
f y
eu t</w>
el d
ee uwen</w>
di eren</w>
d ro
cen timeter</w>
be zoek</w>
be gele
b ui
arbe i
af spraak</w>
a d</w>
S o
L eiden</w>
K ees</w>
Ital i
A ja
ze i
y m
vol le
voe ten</w>
va kken</w>
uwe lijks</w>
uh u</w>
trou w
tra in
ton eel
ti me</w>
tegen aan</w>
sti sche</w>
sp oe
sch uur</w>
rui men</w>
ro k</w>
r and</w>
po tje</w>
oor ten</w>
na uwelijks</w>
mo n</w>
mer ken</w>
l tjes</w>
koe l
in d
ho ven</w>
han di
gro tere</w>
goedko per</w>
gev aar
geloo f
gegev ens</w>
ge wi
ge middel
ge kke</w>
fo to
ex pre
do w
den t</w>
de ur
da mme</w>
d del
d de</w>
compu ters</w>
co no
ch es</w>
cen ten</w>
brie fje</w>
boer derij</w>
bla d
af han
S y
S int</w>
O l
Lies bos</w>
K im</w>
J ap
G ert</w>
Fran k</w>
Aja x</w>
zwar e</w>
win ter</w>
w ouden</w>
vo gel
verdiep ing</w>
ver stan
ver gelij
ver d</w>
ver antwoor
vei li
van zelf</w>
va k
universi teit</w>
uiter aard</w>
u st</w>
ta x
t ap
st ie
spee lde</w>
sch olen</w>
s mer
s j
s i</w>
r oep</w>
pun tje</w>
pr oe
par k</w>
pagin a</w>
over d
oud ste</w>
op passen</w>
op hangen</w>
onder wijs</w>
om heen</w>
minu ut</w>
me di
li d</w>
li cht
l om
kun st</w>
kk en
ken nelijk</w>
kei hard</w>
k ten</w>
in di
gedraa id</w>
ge trokken</w>
ge rommel</w>
ge di
gadver damme</w>
ga re
f r
f jes</w>
f ie</w>
el le</w>
ei land</w>
ee uw</w>
do bbel
dag ochtend</w>
con stant</w>
compu ter
com p
camp ing</w>
c ke
betaa lt</w>
bee st</w>
bas is
ad res</w>
aa ns</w>
Tru dy</w>
Pi et</w>
Pa ul
Joh n</w>
Grieken land</w>
Ger da</w>
F ri
zwem bad</w>
xx x-
w et</w>
voetb aller</w>
vo gel</w>
vo er</w>
vis sen</w>
vertel t</w>
uit geno
ten toon
t wijf
t aal
stof zui
ster d</w>
spel er</w>
schoon maken</w>
sch en
rot zooi</w>
poe h</w>
plan ten</w>
plaa tjes</w>
pa ss
op treden</w>
mor geno
lever t</w>
jeu g
is a</w>
in druk</w>
ie ts
hoe fde</w>
har t</w>
ha u
ha l</w>
groe pje</w>
gor dij
gordij nen</w>
gelui d.</w>
ge slapen</w>
f ra
en -
een entwintig</w>
duur de</w>
doo s</w>
d eel
contra ct</w>
cade au</w>
c ra
c ess
bu lan
bloe men</w>
bloe d</w>
bijzonder s</w>
bet h</w>
be sl
b on
b a</w>
auto ma
an te</w>
a de
W or
R oo
P o
O la
Maar ten</w>
Le o</w>
Bre da</w>
z ier</w>
wer pen</w>
waar de</w>
ver tal
ver stand</w>
v uur
v i</w>
uitgeno digd</w>
u nt</w>
tei ten</w>
t te
ste mmen</w>
spr ingen</w>
sp ont
slo t</w>
s oe
s ief</w>
re dden</w>
ple kken</w>
or i
on ge
o k
no p</w>
ni sa
neer gezet</w>
ne u
n en
morgeno chtend</w>
moo ier</w>
mo tor</w>
mis sen</w>
microfoon .</w>
men t
mach in
ma teri
lui ster</w>
lo l</w>
lich aam</w>
la mp</w>
l ullen</w>
kun dige</w>
kle ding</w>
ka tho
i ke</w>
i ding</w>
he kel</w>
har der</w>
gri et</w>
gev ing</w>
gera mmel</w>
gen aa
gelo ven</w>
gel e</w>
ge kle
ga ra
g de</w>
f ol
expre s</w>
er over</w>
dor pen</w>
de nis</w>
daa ra
c tie</w>
broo djes</w>
bran d
bo den</w>
bloe m
bier tje</w>
be kende</w>
be dan
aar s</w>
V o
S id</w>
Mart in</w>
Maa ike</w>
La ur
L ie</w>
K er
Da ni
vide o</w>
ver staan</w>
ver band</w>
van daar</w>
uit vo
tel t</w>
studen t</w>
stu die
sta p</w>
st eu
si gare
schil derij</w>
psy ch
pra chtige</w>
paa ns</w>
p om
over kant</w>
ou n
onder ne
nis ch</w>
ni ssen</w>
neer leggen</w>
na cht
moo i
mo der
m wa</w>
lu st</w>
lief st</w>
le gt</w>
koe ien</w>
kle tsen</w>
kass a</w>
jon getje</w>
je s
is sie</w>
ine ke</w>
ho k</w>
gev an
g se</w>
func tie</w>
enkel e</w>
ei eren</w>
e ur</w>
discu ssie</w>
dag je</w>
daara chter</w>
d y
ber e
be stellen</w>
be ide</w>
b ul
b iel</w>
an d
afhan kelijk</w>
V en
V -
SM S
S paans</w>
P hi
K laas</w>
Joh n
Gro ningen</w>
Fe yen
C an
zu ster</w>
zesen twintig</w>
zes honderd</w>
vrouw tje</w>
vrij wi
vr u
voetb al
vo gels</w>
verp leeg
ver keer</w>
ver huis
uit zen
uit gaan</w>
tax i</w>
studen ten
stra k</w>
spel letjes</w>
sp roken</w>
so n</w>
sle chte</w>
sei zoen</w>
sch elen</w>
s oorten</w>
ro kken</w>
re pe
pro cess
pr aatje</w>
pper s</w>
po t
overd reven</w>
oo ien</w>
on geloof
olog ie</w>
ne y</w>
ne i
middel bare</w>
mee doen</w>
maat schapp
m eren</w>
le pel
kr oeg</w>
kk ie</w>
ken nis</w>
katho lie
k .</w>
interess eert</w>
inge wikk
il burg</w>
ij k</w>
hon ger</w>
hoe f
han del</w>
ger ui
geko zen</w>
gara ge</w>
fu ck</w>
f ten</w>
er e</w>
enthousia st</w>
el i
e ten
door gaan</w>
door dat</w>
donder dagavond</w>
derij en</w>
den .</w>
da s</w>
d oel</w>
cri min
comm uni
c ken</w>
bove nop</w>
belast ing</w>
be urs</w>
agen da</w>
T ilburg</w>
T ho
S interklaas</w>
Nan nie</w>
N ijn
Lin da</w>
I n</w>
H al
H aal
E st
An dr</w>
A O</w>
' tje</w>
zor gd</w>
zo l
za kken</w>
woor den
woon den</w>
woen s
winkel s</w>
waar voor</w>
wa y</w>
voor zi
ver wa
tu s</w>
to ber</w>
str eek</w>
str aatje</w>
stap t</w>
st een
st af
sp on
snee uw</w>
smer ig</w>
sf oort</w>
sf eer</w>
schri ft</w>
s ke</w>
ren nen</w>
pa kje</w>
ouder e</w>
ou deren</w>
ok tober</w>
o ven</w>
o gen
o e</w>
noor den</w>
noe mde</w>
ni pt</w>
ma 's</w>
ll a</w>
la ger</w>
l enen</w>
kk ing</w>
kk el</w>
ki ppen
keu ze</w>
keu ken
k u</w>
jeu gd</w>
in tel
id een</w>
i end</w>
i di
gev u
gesch ie
gere cht</w>
ge ni
g ne</w>
for mul
fin an
fei te</w>
f ic
ex a
dwar s</w>
dub bel
dinge s</w>
daar naartoe</w>
d'r onder</w>
ca tie</w>
buur vrouw</w>
bulan ce</w>
bu n
br eed</w>
blad zij
ber hau
be waren</w>
be keken</w>
an a</w>
aan tje</w>
a tuur</w>
S ander</w>
Ola f</w>
Jac qu
Fran se</w>
Est her</w>
Er ik</w>
CD -
Amer sfoort</w>
zu l</w>
zo mer
zeven honderd</w>
za kje</w>
wer kelijk</w>
wegg aan</w>
wan del
vrij dagavond</w>
vijfen zestig</w>
verzeker ing</w>
vert aa
verl oren</w>
vereni gingen</w>
ver s</w>
ve sti
v ra
trai ning</w>
toe komst</w>
tentoon stelling</w>
telefoon nummer</w>
te veel</w>
te ken</w>
t y</w>
t oo
sto er</w>
st iek</w>
st ar
spij t</w>
sec re
schi p</w>
scha t</w>
rec e
poli tie
pla kken</w>
piz za</w>
ou wen</w>
orga nisa
opname s</w>
opmer king</w>
ont houden</w>
o t</w>
noe mt</w>
ning in</w>
moei lijker</w>
mid del</w>
m den</w>
lee t</w>
le ver</w>
le tter</w>
le ssen</w>
l et</w>
koel kast</w>
kl oppen</w>
ker k
ke tting</w>
kach el</w>
jon ger</w>
hypo theek</w>
hu t</w>
ho bb
hie ld</w>
he us</w>
ha ven</w>
go dver
gigan tisch</w>
gh t</w>
gevaar lijk</w>
gel en</w>
gebre id</w>
ge dicht</w>
fie t
er s
en der</w>
draa d</w>
din g
der d</w>
da mes</w>
co la
cadeau tje</w>
berhau pt</w>
be staan</w>
be moe
bal kon</w>
bad kamer</w>
ar i
an en</w>
af spreken</w>
achter naam</w>
achter kant</w>
ac ti
aanbie ding</w>
a ssi
W en
V ol
P ortu
Nijn sel</w>
N E
Ho ll
H aag</w>
E g
Den nis</w>
Arj en</w>
Anne ke</w>
Al di</w>
zor g
zeven entwintig</w>
wo lle</w>
wi l
weg gegaan</w>
we b
waar bij</w>
wa n</w>
vr ie
voor berei
vijfen veertig</w>
verwar ming</w>
verhuis d</w>
ver ra
ver leden</w>
va t</w>
uit zetten</w>
tra p</w>
tr o</w>
taf el
ta ge</w>
t jonge</w>
stud eerd</w>
stri cht</w>
str ui
st art</w>
speci ale</w>
span ning</w>
schei d</w>
sal ar
s loo
s land</w>
rou te</w>
ro t</w>
re gi
pp el</w>
ple zier</w>
pla f
pe st</w>
p us</w>
p op
p il
p eu
over i
overi gens</w>
ou t</w>
ontwikk eling</w>
om geving</w>
ogen blik</w>
noo d
moei lijke</w>
m per
lui ster
lo s
lij ken</w>
li p</w>
ko ningin</w>
k y</w>
in y</w>
in k</w>
i p
hui len</w>
hoe lang</w>
ho pen</w>
herinn er</w>
he mel</w>
gun stig</w>
gra den</w>
gevu ld</w>
gerits el</w>
ge s
fla t</w>
fig uur</w>
er voor</w>
er n
er land</w>
er end</w>
ee t
dru kt</w>
do n</w>
di gt</w>
di ging</w>
de uren</w>
daar naast</w>
d rij
cont ro
cont in
c el</w>
c al
buur man</w>
bew ust</w>
begrij pen</w>
bedoe ld</w>
bedan kt</w>
be stuur
ban den</w>
ba kje</w>
b be
appar te
aardapp elen</w>
Zee land</w>
Z wolle</w>
V al
T- shir
T e
Scha gen</w>
R oe
P r
O n
Mich iel</w>
Mar griet</w>
Maa stricht</w>
M c
J aap</w>
I O</w>
Hen k</w>
E x
zwan ger</w>
z wa
won ers</w>
vin gers</w>
ver moei
ver haa
ur e</w>
uitzen d
toer i
theor ie</w>
ter re
ter echt
ten zij</w>
su c
st aa
spr eek</w>
sp ie
sp aren</w>
sn ijden</w>
sl uiten</w>
sl uit
si o
se weg</w>
scher p</w>
sc oop</w>
perio de</w>
organis eren</w>
ongeloof lijk</w>
na tion
mu is</w>
mooi ste</w>
mogelijk heid</w>
moe der
mm e
machin es</w>
ma xi
ma t</w>
m al
m -
ll y</w>
lie ve</w>
li chting</w>
leven s
lekker der</w>
kwe stie</w>
keur ig</w>
ka t.</w>
k ies</w>
k et</w>
j or
is sen</w>
ingewikk eld</w>
ij s
huis hou
hou ten</w>
hol pen</w>
go ur
go d
git aar</w>
geschie denis</w>
gen ter
gele verd</w>
gek nipt</w>
ge sloten</w>
ge mist</w>
ge laten</w>
ge ha
fe sti
dub bele</w>
du n</w>
dri entwintig</w>
door n</w>
din s
dicht bij</w>
de f
ch am
camer a</w>
c us</w>
boe kjes</w>
bo ter
bo ard</w>
be wijs</w>
b ah</w>
av on
appara tuur</w>
an e</w>
an da
achter aan</w>
aardapp els</w>
aa s
aa k
a kel
a de</w>
W in
T u
T ri
T ien</w>
Ro bert</w>
Ri et</w>
Rem co</w>
R O
O u
Ne w</w>
M ieke</w>
Lies beth</w>
H il
Feyen oord</w>
C or</w>
Arj an</w>
zon ne
zoe kt</w>
wa l
w ol
vuur werk</w>
vriend innen</w>
voor lezen</w>
vloe d</w>
verza mel
verl ies</w>
ver t</w>
ver ko
ver der
van nacht</w>
v lu
ur n
uit komt</w>
uit gelegd</w>
train er</w>
tra s</w>
to ff
terug komen</w>
tenta mens</w>
tel d</w>
stan den</w>
spre kers</w>
se s</w>
s h</w>
ro llen</w>
pu bl
pro mo
prak tij
post ze
pers oneel</w>
pensi oen</w>
p laat</w>
p aard</w>
ouder we
or s</w>
or k</w>
op geschreven</w>
ont staan</w>
on k</w>
on handig</w>
o o</w>
ne ga
na gedacht</w>
na gaan</w>
na der
na dat</w>
n ers</w>
morgen avond</w>
mana ger</w>
m i</w>
lu kken</w>
loo g</w>
lee ft</w>
le s
le lijke</w>
la den</w>
koo l</w>
ko ning</w>
ka stje</w>
ka sten</w>
ka mp
k ingen</w>
k eel</w>
k aal</w>
jeug d
il e</w>
i gen</w>
har en</w>
h ing</w>
gr ie
gev oerd</w>
gesch il
genter ess
gemen e</w>
gel dt</w>
ge merkt</w>
ge ma
g oud
fe e</w>
f in</w>
f an</w>
dur end</w>
dr oo
dorps raad</w>
doe i</w>
din gs
die p</w>
di g
d u</w>
clu b
c ap
bru ine</w>
brie ven</w>
bran den</w>
br and</w>
bedoe lde</w>
ba r</w>
arbei ds
an ne</w>
amb ten
af ijn</w>
ad vis
achter uit</w>
achter in</w>
Wen dy</w>
W it
Tho mas</w>
Le on
Jo b</w>
G a
E ri
Cor a</w>
Bru ssel</w>
A th
zul t</w>
zon dagavond</w>
zol der</w>
zo dra</w>
zin nig</w>
zeil en</w>
zater dagavond</w>
wo w</w>
war me</w>
vroe gen</w>
voort durend</w>
ver re
ver be
v ul
v le
v ies
v aren</w>
v aar
uit gebreid</w>
u p</w>
ty pen</w>
ty pe</w>
tro k</w>
tig ste</w>
ti ca</w>
ten tie</w>
sur fen</w>
stud eert</w>
ss e
spr ong</w>
se ks</w>
sch ul
sch rok</w>
s ver
s lij
s ka
ru sti
ron de</w>
roe pen</w>
ri cht</w>
re gels</w>
re ag
ra pp
programm a's</w>
posi tie</w>
poe tsen</w>
papi eren</w>
pakk et</w>
p ij
ou we
op e
onderwer pen</w>
oe gen</w>
ne l</w>
nader hand</w>
na chten</w>
n i</w>
mogelijk heden</w>
mo biel</w>
ma r</w>
m ijne</w>
la tie</w>
l aan</w>
kran ten</w>
klan t</w>
k ro
k racht</w>
it a</w>
inter vie
intel li
ind hoven</w>
in tro
hel der</w>
han delen</w>
gor d
genteress eerd</w>
ged eeld</w>
ge slagen</w>
ge kookt</w>
ge holpen</w>
ga s</w>
ga 's</w>
en tje</w>
en den</w>
eer den</w>
e- mail</w>
dr oog</w>
dol la
di um</w>
di eren
comm er
cho cola
bro mmer</w>
bren g</w>
bor den</w>
boe k
ber s</w>
be k</w>
bas is</w>
ban djes</w>
b eer
ap o
al hoewel</w>
af studeren</w>
ad ver
achten twintig</w>
ach tige</w>
aan we
aa kt</w>
a k</w>
Zuid- Afrika</w>
T om</w>
T ineke</w>
Ro y</w>
N u
Limbur g</w>
L is
E indhoven</w>
Del ft</w>
Annem iek</w>
Ale x</w>
zo genaa
ze uren</w>
za chtjes</w>
x en</w>
wi ld</w>
wer eld
waar mee</w>
vo et</w>
ver zon
ver trouwen</w>
ver se</w>
ver bin
vei lig</w>
v ull
v ie</w>
v eerd</w>
u b</w>
tween dertig</w>
tu n
tt y</w>
trivi an
tre inen</w>
te st</w>
te kening</w>
t i</w>
stra tie</w>
stie ke
stel de</w>
stap el</w>
st ens</w>
span nen</w>
sleu tel</w>
sio therap
seni oren
schen ken</w>
s o</w>
s maakt</w>
ris ico</w>
re ser
ra mp</w>
r a</w>
plo ts
pla kt</w>
per s</w>
p alen</w>
over tui
or ke
ontwikk el
onal d</w>
oe i</w>
ni sche</w>
ni que</w>
na t</w>
na h</w>
na deel</w>
mo tor
min a</w>
mel o</w>
me ning</w>
maa l
m ie
lu x
lij nen</w>
lie djes</w>
lang zaam</w>
la waa
l een</w>
kla p</w>
kl op
ker sen</w>
k -
is me</w>
is e</w>
inter net
huis houden</w>
gr aa
godver domme</w>
gezell ige</w>
gesch eiden</w>
gere kend</w>
ge za
ge heel</w>
ga ve</w>
fi ches</w>
f onds</w>
f ac
er mee</w>
en fin</w>
elek tri
ee uw
dre mp
dou chen</w>
doo sjes</w>
donder s</w>
doe ken</w>
der gelijks</w>
de s
de m</w>
da m
comp leet</w>
comm issie</w>
ch ri
ch a
c y</w>
brui lo
bl e</w>
bio scoop</w>
ber oep</w>
be loo
be greep</w>
b oor</w>
at ies</w>
arti kel</w>
ap pel
ap p
an g
ad vies</w>
ad re
acti vi
aar de</w>
aan genomen</w>
a tor</w>
a t</w>
Wer el
T wee
Sch ip
O p</w>
O f</w>
N o
Mil aan</w>
M or
Jan- Willem</w>
G u
E llen</w>
E i
Braban t</w>
Bo b</w>
Bar cel
B en</w>
Ath ene</w>
Ar no
An to
Ale x
A IO</w>
zo wat</w>
zei ken</w>
za kjes</w>
z waar
y s</w>
wiss elen</w>
wegg aat</w>
we i
wa uw</w>
w oe
vrijwi lli
voor kant</w>
vijf de</w>
ver houding</w>
uw tje</w>
ur de</w>
ui lle</w>
terre in</w>
te ke
ta ire</w>
stieke m</w>
stee k</w>
staan de</w>
st ok</w>
st in
sp eel</w>
sna pte</w>
sla g
schu ld</w>
schap s
sch aal</w>
sc oo
rie p</w>
re u
re gel</w>
ra ce
r i</w>
pre t
pr oef
pl oma</w>
persoon lijk</w>
p innen</w>
ou ter</w>
organis eerd</w>
op per
op eten</w>
on ne
on e</w>
o ten</w>
o b
no n</w>
mm er
mini dis
meer dere</w>
mee sten</w>
man netje</w>
mail en</w>
mail d</w>
m ui
m heen</w>
m eel</w>
loo n</w>
loo d</w>
lo catie</w>
li ge</w>
li g
lepel tje</w>
laa sje</w>
l i</w>
kor ting</w>
kno fl
knofl ook</w>
ka pper</w>
k nu
jo urn
is ka</w>
in stelling</w>
hoe veel
her sen
haa lde</w>
groe it</w>
gour me
gerui md</w>
ge t</w>
ge ment</w>
ge de
fy siotherap
fou ten</w>
fa se</w>
even ter</w>
el tjes</w>
el f
dur fde</w>
dr ui
do cu
die zelfde</w>
di chter
def ini
cono mie</w>
combin atie</w>
colle ga's</w>
ch ie</w>
ch ag
chag rij
c tor</w>
c ou
buiten lan
buff et</w>
bruilo ft</w>
broo dje</w>
broe ken</w>
bre de</w>
boer en
be sloten</w>
be heer
bab y</w>
b alen</w>
an ti
an nen</w>
al vast</w>
al e
T V-
S ie
Rij ks
R O</w>
Nie uw
Mar c</w>
M en
L en
J et</w>
He ster</w>
Ger ard</w>
D eventer</w>
C la
Barcel ona</w>
B ur
B ig</w>
Arno ld</w>
A ssen</w>
A g
A -
zo enen</w>
z zel</w>
wij zen</w>
werk ing</w>
web site</w>
w n</w>
vol k</w>
vis i
verzon nen</w>
verstan dig</w>
ver wege</w>
ver de
vel ien</w>
v ig</w>
u ssen</w>
trou w</w>
ton eel</w>
tan den</w>
tan dar
st ei
sna pt</w>
sna ppen</w>
schi kt</w>
salar is</w>
s ie
ru ik</w>
rec or
ra den</w>
r aak</w>
publ iek</w>
prij zen</w>
presen tatie</w>
plan ken</w>
pa sp
or an
op tie</w>
op ruimen</w>
op geruimd</w>
op gebeld</w>
oo kt</w>
oef enen</w>
no ten</w>
nin gs
mu zi
mo ti
mis ch</w>
me iden</w>
ma ss
lom p</w>
li ter</w>
li ter
le gen</w>
lan gen</w>
kwali teit</w>
kon t</w>
kon ijn</w>
ko u</w>
klein tjes</w>
ker s
kel der</w>
ka r</w>
jon gste</w>
is s</w>
idi oot</w>
hu ur</w>
hu mor</w>
ho cke
he k</w>
hal verwege</w>
gourme tten</w>
geri cht</w>
ger oe
gen de</w>
gemeen te
gelui den.</w>
gele gen
ge maild</w>
ge fietst</w>
ge du
g oud</w>
g laasje</w>
fr uit</w>
fle ssen</w>
ern stig</w>
en kel</w>
en ce</w>
dr oog
door log</w>
doe l
dichter bij</w>
di ploma</w>
daa rover</w>
da k
contin u</w>
com ple
ce p
c re
c lo
c eren</w>
bu ssen</w>
bru g
bro ers</w>
bre ken</w>
binnen komt</w>
be sch
ba kker</w>
au ff
ar a</w>
ander halve</w>
achter op</w>
achten dertig</w>
Z we
Y ork</w>
Werel doorlog</w>
T on</w>
T iny</w>
Sy l
Portu gal</w>
Par ijs</w>
O da</w>
NE C</w>
Mo nique</w>
Mc D
Mar ie</w>
Ly dia</w>
Laur ens</w>
Jan neke</w>
Haal der</w>
H oe
G r
G ijs</w>
E velien</w>
B ro
B ali</w>
Amerik aanse</w>
zor gt</w>
zon dags</w>
zie kte</w>
zan ger</w>
x tel</w>
wel eens</w>
wee gt</w>
wa r</w>
wa gens</w>
w ha
vui l
vraa g
vor t</w>
vijfen negentig</w>
verlie fd</w>
verl en
verder op</w>
ver trekken</w>
ver slag</w>
ver sie</w>
v ou
ul letjes</w>
ui tje</w>
ui l</w>
tra ppen</w>
tra m</w>
toe stand</w>
to uw</w>
terra s</w>
ter ing</w>
te ke</w>
tandar ts</w>
ta xi
ta tie
ta ir</w>
stu urt</w>
sta m
st rijden</w>
st al
spra k</w>
spont aan</w>
sp uiten</w>
sp ro
sp a
so kken</w>
slaa pt</w>
sec onden</w>
sche pen</w>
s man</w>
s jonge</w>
ron dje</w>
rij bewijs</w>
repe ti
re gent</w>
profess or</w>
praktij k</w>
pp ie</w>
pol it
po sters</w>
plots eling</w>
plan k</w>
plaf ond</w>
pla t</w>
part ner</w>
par keren</w>
papier .</w>
pa niek</w>
ou wer</w>
organisa tie</w>
oplo ssing</w>
op schieten</w>
op letten</w>
oor n</w>
oo ds</w>
ontbij t</w>
ont moet</w>
on de</w>
oe s</w>
mu ziek
mm ing</w>
mil jar
me u
m uren</w>
m ij
loo s</w>
loo p
lij den</w>
li ft</w>
leu kste</w>
letter lijk</w>
l ie</w>
kun d</w>
ks el
ko e</w>
klan ten</w>
k ij</w>
jon geren</w>
j al
in a
hu ur
hei ds
he im</w>
han g</w>
h onden</w>
grij ze</w>
go zer</w>
geha kt</w>
gedi chten</w>
ged ragen</w>
ge organiseerd</w>
ge kr
g te</w>
fl uit</w>
f ull
f ijne</w>
eu ro
er ings
ein digt</w>
du ct</w>
drin kt</w>
drin k</w>
dolla r</w>
dobbel en.</w>
di ri
de u
daar boven</w>
daar aan</w>
da me</w>
d'ro mheen</w>
d'ra chter</w>
d'r na</w>
chagrij nig</w>
c la
bu sje</w>
bu s
bu ik</w>
bo d</w>
bie le</w>
bi dden</w>
beg aa
bee k</w>
be spreken</w>
automa tisch</w>
ant woorden</w>
an g</w>
al co
af schu
af scheid</w>
af maken</w>
af luisteren</w>
ad mini
ac cep
aal s</w>
Zwe den</w>
T oo
Sj aak</w>
Schip hol</w>
San dra</w>
RO M</w>
R oel</w>
R in
Mi ddel
Mart ijn</w>
Ma tt
M an
M AVO</w>
Lu uk</w>
Leon ie</w>
K eu
K ar
Jor is</w>
Jap an
Hu ub</w>
H et</w>
H ei
H E
C u
C han
Bo xtel</w>
B il
Au str
Al melo</w>
zou t</w>
zo et</w>
zij kant</w>
xx -
wiss el
weg getje</w>
we kker</w>
voor komen</w>
voor af</w>
voor aan</w>
vo cht</w>
vieren dertig</w>
verdi end</w>
ver wachten</w>
ver voer</w>
ve tte</w>
v il
uitno digen</w>
uit spraak</w>
uit gezet</w>
twee de
tten de</w>
tro ts</w>
toe tsen</w>
to uille</w>
to ma
to en
ther mo
tek sten</w>
te sten</w>
te mper
t werpen</w>
t int</w>
t aak</w>
stre ss</w>
stre pen</w>
sti chting</w>
ste lijke</w>
ste den</w>
somm igen</w>
sn oods</w>
sle ten</w>
sl oeg</w>
schui ven</w>
schoo t</w>
sch roe
s ul
s ni
roe pt</w>
ro n</w>
ro mmel
ro er</w>
ri vier</w>
re den
proje cten</w>
prob eert</w>
p ie</w>
p elijk</w>
p an</w>
over leggen</w>
over genomen</w>
ouwe ho
orke st</w>
oran ge</w>
opge haald</w>
ont de
o lij
non nen</w>
na gels</w>
mini maal</w>
mi sche</w>
mee gaan</w>
mede wer
me i
materi aal</w>
ma cht</w>
lu cht
lo gi
ll en
lee s
lee f</w>
lawaa i</w>
la ch</w>
l of</w>
ku st</w>
kno p</w>
kla gen</w>
keu s</w>
kant ine</w>
ka tten</w>
k ui
k man</w>
j en</w>
in ve
in du
iets je</w>
hier zo</w>
her ken
ha m
groe pen</w>
groe id</w>
gra m</w>
gevol gd</w>
gevoe lig</w>
ger aakt</w>
gep land</w>
geno ten</w>
gelui sterd</w>
ge wo</w>
ge wassen</w>
ge kund</w>
gaa t.</w>
fli kker</w>
fle sje</w>
festi val</w>
fee sten</w>
ell ende</w>
dur ft</w>
du wen</w>
drien vijftig</w>
draa i</w>
door gaat</w>
door de
doe kje</w>
der gelijke</w>
de snoods</w>
de lijker</w>
d'r naast</w>
contac ten</w>
col a</w>
chi te
chi ps</w>
ch auff
bree kt</w>
boe iend</w>
bloe d
bladzij de</w>
blaa dje</w>
bie den</w>
bi bli
bele id</w>
bel s</w>
beg ra
be tere</w>
be hoef
b ol
b aar
ar ro
an al
al l</w>
af del
aar tje</w>
aanwe zig</w>
a sociaal</w>
X xx-
Wie teke</w>
V ier
SMS '
S us
P im</w>
P atri
P S
Oo st
N U
M in
Lan g
L ei
Holl and</w>
Dani l</w>
D -
C in
C en
Ag nes</w>
zesen tachtig</w>
zeker heid</w>
z ine</w>
z ijn
woorden boek</w>
wo l</w>
win kelen</w>
wi ts
wen nen</w>
wed strijden</w>
wa gen
vra cht
vol u
vermoei end</w>
verhaa ltje</w>
verander t</w>
ver vangen</w>
ver v
ver moe
ver koop</w>
ver f</w>
ver dien</w>
v lucht</w>
trivi ant</w>
tij ds
tien duizend</w>
ti llen</w>
tar i
ta touille</w>
sy m
strui k
struik rover</w>
str oom</w>
spr aak
sp er
so f
sigare tten</w>
sh op</w>
se lijke</w>
se le
scher m</w>
schaa tsen</w>
sc oren</w>
samen wonen</w>
rou w</w>
regel ing</w>
recht s
re ta</w>
re ini
ra tatouille</w>
pro ces</w>
pr ie
pi kken</w>
par ket</w>
p on
oo ns</w>
on dan
o f
nu ttig</w>
ne tte</w>
ne k</w>
mo biele</w>
me ten</w>
m op</w>
m elen</w>
lo gen</w>
li la</w>
lang za
lan ds</w>
la mpen</w>
kwij ls</w>
koo p
ko pi
kin djes</w>
ken den</w>
ke t
k ri
k oor
ir ri
indi vi
in pakken</w>
in houd</w>
i ger</w>
huis werk</w>
hocke y
her rie</w>
hee r</w>
he c
gra p</w>
goe de</w>
gezon gen</w>
gezon dheid</w>
gewi cht</w>
geschil derd</w>
gen en</w>
gemiddel d</w>
gelo st</w>
gee st</w>
ged rag</w>
gebe urde</w>
ge schikt</w>
ge inig</w>
g isch</w>
g h</w>
g aan
ex tr
er af</w>
en ne</w>
en ds</w>
e f
dur ven</w>
dor ie</w>
doorde wee
do ne
di o</w>
di kwijls</w>
de ta
daa gse</w>
con centr
che m</w>
bo s
bo ar
blo k</w>
bibli o
beste den</w>
ber g
bed ie
be zi
be we
be de
basis school</w>
ban k
ar m
ar gu
ar chite
am bulance</w>
af lever
adver tentie</w>
ac tief</w>
a ge</w>
Z wits
W outer</w>
W il</w>
W eert</w>
W al
V oor</w>
V W
T ele
St een
R ik</w>
P isa</w>
Nic ol
N el</w>
L ou
L V</w>
Ju li
Jacqu es</w>
J en
In done
I l
Hal er</w>
H ul
H ui
G i
G en
Fr ies
Fl oor</w>
F a
Ed win</w>
E de</w>
Duits ers</w>
Cor pus</w>
Cin dy</w>
C ap
B ri
A pel
zi l
z uur</w>
ym pi
wo ningen</w>
winkel tje</w>
wij f</w>
weg brengen</w>
waar den</w>
voor namelijk</w>
vijfen vijftig</w>
vertal ing</w>
verdi ende</w>
ver zin</w>
ver m
ver heen</w>
uur tjes</w>
uitzend bureau</w>
uiter lijk</w>
uit ziet</w>
ts ke</w>
to ri
tien tje</w>
ti kken</w>
temper atuur</w>
televis ie
tei ts
tech niek</w>
ta e-
su kkel</w>
su f</w>
stra ten</w>
str a</w>
stij l</w>
sta dje</w>
st all
ss al
spoe len</w>
sp oor
sp ar
soci ale</w>
sloo t</w>
schr eeuwen</w>
schr eef</w>
schil deren</w>
s el
rui kt</w>
ro ton
ri dder</w>
re actie</w>
ra ils</w>
praa tte</w>
pp e</w>
polit iek</w>
pol der</w>
po dium</w>
pi g
peu ter
pasp oort</w>
pa ro
p h
over leg</w>
or ven</w>
opge hangen</w>
ope ning</w>
op zij</w>
op dra
ontze ttende</w>
onder steu
ondan ks</w>
on gelo
on g
negen entwintig</w>
nega tief</w>
na kijken</w>
mon ie</w>
mo no
mm ie</w>
mm elen</w>
mini ster</w>
min stens</w>
mi li
mana gement</w>
maatschapp ij</w>
maa g</w>
lux e</w>
lu kte</w>
leer lingen</w>
le t
le ss
la mpje</w>
l ies</w>
ku t
kr aan</w>
koo k
ko pjes</w>
klein er</w>
kl oo
kal ender</w>
k ruis</w>
intro duc
inter nation
in stan
in geschreven</w>
ic e</w>
ic a</w>
honder d
hoe kje</w>
hei m
ha pjes</w>
h ingen</w>
h ij
h ie</w>
h aan</w>
gul den
groo t
gr en
go ds
geroe pen</w>
gebou wen</w>
ge oper
ge f
g li
g ger</w>
full time</w>
fin ale</w>
f el</w>
ex ac
er ge</w>
envel op</w>
elek tro
een d</w>
ee u
drie kwart</w>
d' s</w>
d res</w>
d recht</w>
d ier</w>
cul tuur</w>
cu m</w>
con cur
ck et</w>
ci tro
che cken</w>
bur gemee
bor dje</w>
boe ien</w>
bo n</w>
bla deren</w>
bl ond</w>
bijzonder e</w>
bie b</w>
behoef te</w>
bedrij f
be veili
be stee
bb er</w>
ba s</w>
b il
at h
arti kelen</w>
apparte ment</w>
app els</w>
anal y
afschu welijk</w>
af stan
achten veertig</w>
aan geven</w>
a tie
Zwits erland</w>
Z i
Vol ks
V in
Twee de</w>
Sp aanse</w>
Ro er
R ad
Pr aag</w>
Patri ck</w>
P olen</w>
Oo sten
Mich el</w>
Marij e</w>
Mar j
M ex
Lis el
L eu
K un
K oo
Jor daan</w>
H un
G oe
G el
F ir
Cap elle</w>
Bel gische</w>
B en
Apel doorn</w>
An twerpen</w>
An ne</w>
zin s</w>
zi cht
zeven de</w>
z zel
z al
wij nen</w>
wegg ooien</w>
war mte</w>
waa ien</w>
w onder
vro lijk</w>
verza melen</w>
vergelij ken</w>
ver ven</w>
ven tje</w>
veel s</w>
uit zien</w>
uit zicht</w>
uit geven</w>
u m
tween veertig</w>
tter s</w>
toe tje</w>
to uwtje</w>
the a
teru gg
telefoon tje</w>
te kort</w>
te gels</w>
ta re
t ik</w>
suc ces</w>
sti aan</w>
ster ren</w>
ster ren
ss ief</w>
ss el
spre ker</w>
sp er</w>
sollici teren</w>
sollici tatie
sl ui
sl in
si dent</w>
secre tare
scho en
sa p</w>
s nee</w>
s kunde</w>
s je
s interklaas</w>
s burg</w>
s aus</w>
s au
s -uh-
roo k
ri chten</w>
rec en
re ken</w>
rapp ort</w>
ran dje</w>
ra b
r ent</w>
pro te
pre sident</w>
ple i
persoon lijke</w>
pe ta
pe per
pa tint</w>
pa tin
p op</w>
p ool</w>
p aling</w>
p al
ori gin
opmer kingen</w>
open baar</w>
op zetten</w>
op gezet</w>
op gelost</w>
onal d's</w>
om gaan</w>
o ne
noe mden</w>
net werk</w>
nee f</w>
mu s
mu n
moder ne</w>
min gs
maxi maal</w>
maa kten</w>
ma kers</w>
m y</w>
m ig</w>
ll ie</w>
lei ding
lei den</w>
le zing</w>
l eert</w>
ko pp
kni p</w>
klein kinderen</w>
ke lijke</w>
kan ker</w>
jur k</w>
interk laa
ini ti
indu str
indivi du
in vloed</w>
in struc
in stru
in schenken</w>
in hou
in gt</w>
il i</w>
il d</w>
ier d</w>
i mp
i en
hee n
handi cap
groen te</w>
gg e</w>
gewel dige</w>
gewe ld</w>
geoper eerd</w>
gele id</w>
geb la
ge zocht</w>
ge hu
ge handicap
ge do
ge -
gan gen</w>
g ouden</w>
formul ier</w>
for m</w>
fle xi
fil e</w>
fiets en
f elijk</w>
f at
ex -
er ger
e mmer</w>
draa gt</w>
do zen</w>
do cent</w>
die jen</w>
die gene</w>
di gheid</w>
de k
daar onder</w>
da gelijks</w>
d' rom</w>
d sen</w>
d der
d de
cur su
chauff eur</w>
cham pig
cadeau tjes</w>
ca te
ca ra
bu d
boe ken
bl in
beri cht</w>
belangrij ke</w>
beer s</w>
beel djes</w>
be ze
be waard</w>
be valt</w>
be sproken</w>
be spre
ba tter
b oor
b aal</w>
b aa
av onden</w>
atri x</w>
ar men</w>
an y
an de</w>
als maar</w>
al u
al door</w>
aar d
aange boden</w>
aan doen</w>
V ene
T-shir t</w>
T ij
T iel</w>
Sj ors</w>
Ri a</w>
R onald</w>
R ome</w>
Paul a</w>
PS V</w>
P ro
O ss</w>
Nederlan ders</w>
N or
N el
McD onald's</w>
M A</w>
K ri
J on
J im</w>
In dia</w>
G er</w>
Euro pe
D rie</w>
D rie
D oe
D an
D F
Car la</w>
C le
Braban ts</w>
Bra m</w>
Ber gen</w>
B ab
zesti g
ze tte</w>
za cht</w>
z oo
y og
win st</w>
weg gegooid</w>
wee g</w>
we lijke</w>
w on</w>
vuil nis
vrie zen</w>
vogel tjes</w>
vin ger</w>
vij ven</w>
vi ce
vertaa ld</w>
verantwoor de
ver sleten</w>
ver kleed</w>
ver dorie</w>
var i
v leu
v een</w>
uit gehaald</w>
u wa
u la
trivian tje</w>
the ma</w>
terug bellen</w>
te urs</w>
ta kken</w>
t- Jan</w>
t aart</w>
sub si
straa t
stij d</w>
sta d
st oep</w>
st o</w>
st ijn</w>
st ent</w>
spor ten</w>
spij ker
spie gel</w>
spel len</w>
spel ers</w>
spe c
sp unt</w>
sp o
sp ier
sne lle</w>
sne den</w>
sn ij
sm al</w>
sli ppers</w>
sk in</w>
simp ele</w>
sig n
sig ar
schu in</w>
schri ften</w>
schr ik</w>
schil derijen</w>
sch oen</w>
sch ijn
rug zak</w>
ru n
roton de</w>
rol letje</w>
reser veren</w>
rea geren</w>
re tje</w>
ra ken</w>
r ies</w>
pu ree</w>
psych ol
process ie</w>
pro duct</w>
pr int</w>
por te
poe s</w>
po ster</w>
ple kje</w>
plaat sje</w>
pin da
pe ch</w>
pa k
p o</w>
p ik</w>
p aal</w>
ou s</w>
onder wij
on zen</w>
oe fe
o ze</w>
no ns</w>
ni x</w>
neer gelegd</w>
ne mers</w>
n er
mo ni
mo del</w>
mme tje</w>
maal tijd</w>
ma zzel</w>
ma f</w>
m ke</w>
m aan</w>
luister t</w>
lie d</w>
le ger</w>
la gere</w>
kun sten
koo l
kn ij
kle den</w>
klaar maken</w>
ken nissen</w>
ke urd</w>
ke -
kan go
ka bel</w>
k t
jeugd her
jaar s</w>
j u</w>
interess ante</w>
instan tie</w>
ing s</w>
ing ang</w>
in tussen</w>
in komen</w>
in gesch
in gedeeld</w>
in deling</w>
il et</w>
i ts</w>
i ll
hul p
huishou d
hor i
hoog uit</w>
ho mo
hier heen</w>
hi stor
he kken</w>
ha gen</w>
h ond
h ijs</w>
h aak</w>
gulden vraag</w>
gs zins</w>
groen te
gol ven</w>
goedko pe</w>
gevol g</w>
gevan ge
gest olen</w>
ger s
gep laatst</w>
geni eten</w>
gen oot</w>
gemiddel de</w>
gelegen heid</w>
gekr aak</w>
geb oor
ge slaa
ge rust</w>
ge ne
ge kend</w>
g ne
g ie
g een
geen eens</w>
g ant</w>
g aar</w>
fysiotherap eut</w>
fou te</w>
fil m
ff e</w>
fat so
f tig</w>
f ris
ess a</w>
er t
eni s</w>
eni gszins</w>
en ge</w>
ein dje</w>
ei st</w>
drien dertig</w>
dow s</w>
docu men
do min
di sche</w>
di git
de ks
de e</w>
dag morgen</w>
d'r tussen</w>
cr che</w>
comm ent
co me
clu sief</w>
cijf ers</w>
champig nons</w>
cal or
c ti
bure au
bor rel</w>
bo x</w>
bo w
bo l</w>
bo bank</w>
bla bla</w>
bl onde</w>
biblio theek</w>
bestee d</w>
beloo fd</w>
be vesti
be per
be jaar
bar be
bar a</w>
ban kje</w>
ban ken</w>
ban en</w>
b ri
b oud</w>
b onen</w>
ar me</w>
ar ch
any way</w>
an o</w>
am an
alu mini
alle tje</w>
alco hol</w>
af wij
af wassen</w>
activi teiten</w>
aan sluit
aan gekomen</w>
a p</w>
a men</w>
a ir</w>
a da</w>
Wit -
Wil hel
Ven lo</w>
VW O</w>
V laa
T wee</w>
T ijden</w>
Su per</w>
Sch o
Sa int</w>
S tu
S to
S an</w>
Roer mond</w>
Rad boud</w>
Ra bobank</w>
R ei
P ri
P A
O ver
Noor d-
Mari a</w>
Mar jo
M ul
K rui
John ny</w>
Jo chem</w>
Je an
J oep</w>
J ess
H B
Ge p</w>
Fries land</w>
Fe mke</w>
F rie
F red</w>
Euro pa</w>
E ls</w>
E l</w>
Chan tal</w>
Can ada</w>
Ca rol
Bar bara</w>
B ij
Austr ali</w>
Ar den
An d</w>
A no
A LV</w>
zogenaa md</w>
zesti en
zen uwa
zenuwa chtig</w>
yog h
woon kamer</w>
wi t
weten schap</w>
wer s</w>
weg ge
weeken dje</w>
w oh</w>
vrij heid</w>
vrien delijk</w>
vor men</w>
vo chtig</w>
vo ca
vlo er
visi te</w>
vis ie</w>
vervel ende</w>
verschi llen</w>
ver oor
ver ont
ver legen</w>
ver domme</w>
v r</w>
v end</w>
ul de</w>
uitvo ering</w>
uitno diging</w>
uit halen</w>
ui en</w>
ty pe
tween vijftig</w>
twee ling</w>
twaal f
ts j
tru i</w>
tre e</w>
to ilet</w>
tig duizend</w>
ter na
ter d</w>
te am
t ij</w>
super markt</w>
su pp
str eep</w>
ster ing</w>
ste mming</w>
sta te</w>
sta di
spra ken</w>
spra ke</w>
spr on
speel goed
so ap
soap serie</w>
snee uw
sl uit</w>
sig aren</w>
sei lle</w>
secretare sse</w>
scoo ter</w>
schrij ving</w>
schij nen</w>
schapp elijk</w>
sal ade</w>
s lan
rond lopen</w>
rol stoel</w>
rij ke</w>
recht stree
ra ce</w>
r eet</w>
r ee
pu t</w>
pu bli
postze gels</w>
poo sje</w>
po tten</w>
pla ssen</w>
pie p</w>
pi sche</w>
pi ano</w>
peuter speel
part ij</w>
par t</w>
papi ertje</w>
p laten</w>
p ing</w>
p et</w>
over nemen</w>
over komen</w>
ou se</w>
opge stuurd</w>
ont doo
onne ment</w>
ongelo felijk</w>
on nie</w>
ol i
ol f</w>
o s</w>
nin gin
ni n</w>
nei ging</w>
ne st</w>
ne p</w>
ne dag</w>
na tuur</w>
n tjes</w>
mu zie
mu ts</w>
morgen vroeg</w>
moeder bord</w>
moe s</w>
mo uwen</w>
mo l</w>
mid delen</w>
ment eel</w>
mee n
man netjes</w>
maa k
ma tras</w>
m eerd</w>
lu b</w>
lo sse</w>
lo geren</w>
lin ke</w>
li chte</w>
lei d
le ke</w>
langs komen</w>
l ine</w>
kr ij</w>
kost te</w>
kost school</w>
kor ter</w>
kker ij</w>
keur ing</w>
kel aar</w>
katholie k</w>
kango er
k ur
k ne
it 's</w>
is o
intelli gen
in tro</w>
in ten
in ees</w>
ij t</w>
hou der</w>
hoor n</w>
hoor den</w>
hoog te</w>
hobb y</w>
ho mo</w>
her hal
heim wee</w>
he ll
he l</w>
har monie</w>
haa kjes</w>
ha ken</w>
grij s</w>
grapp ige</w>
gra cht</w>
goo ide</w>
gevange nis</w>
gev ierd</w>
geslaa gd</w>
gelij ker
gel et</w>
gel den</w>
gekle urd</w>
ge zorgd</w>
ge zo
ge zel
ge sto
ge makkelijk</w>
ge boe
ge bakken</w>
gan g
g ut</w>
g -
function erings
fiet sto
f e</w>
extr eem</w>
effe ct</w>
effe c
ef kes</w>
eer kamer</w>
eenen veertig</w>
een vou
eel tje</w>
du n
dr oom</w>
do r</w>
dis co
dins dagavond</w>
digit ale</w>
den d</w>
d'ro verheen</w>
cursu ssen</w>
cu la
cont rol
chocola de
c s</w>
burgemee ster</w>
buiten kant</w>
bou wd</w>
bor re
boe it</w>
bo ter</w>
bl ee
bij ten</w>
bij een
beste k</w>
ben au
bedrij fje</w>
be zoe
be woners</w>
be scher
be lang</w>
barbe cu
b y</w>
b racht</w>
b leven</w>
b eren</w>
b eer</w>
b all
b aantje</w>
au too
au ti
alis eerd</w>
al terna
al gemene</w>
akel ig</w>
achtergrond geluiden</w>
achter en</w>
ab onnement</w>
aan zetten</w>
aan tre
aan passen</w>
aan komen</w>
Wie tske</w>
W ij
V V
V ROM</w>
Tur kse</w>
T S</w>
S on
R us</w>
Phi li
Ol ympi
O e
Noor d
Nic e</w>
Maur ik</w>
Mar seille</w>
Mar nix</w>
M ir
Lu c</w>
Kri stel</w>
K iss</w>
K am
Jess ica</w>
Jen ny</w>
In ter
IJ sland</w>
I r
Hun sel</w>
Hen dri
Hel een</w>
H oorn</w>
H oo
G eert</w>
F i
F er
E us</w>
Do lly</w>
Ch inees</w>
CD 'tje</w>
C har
C al
Be atrix</w>
B lo
Anto ni
An nie</w>
An na</w>
zui den</w>
zo zeer</w>
zijn de</w>
ziek te
zes de</w>
zater dagmiddag</w>
zan d
yogh urt</w>
y o
y ce</w>
winter sport</w>
wil le
werk stuk</w>
weeken den</w>
water leiding
wa cht
vui l</w>
vrien djes</w>
vree mde</w>
volle dig</w>
vol wassen</w>
vol ks
vlie gt</w>
vla kte</w>
verschill end</w>
ver re</w>
ver lichting</w>
ver gi
val u
v lin
vlin der</w>
ur tje</w>
uit verkocht</w>
uit proberen</w>
ui ll
tweede han
tt ingen</w>
tro n</w>
tro mmel</w>
tre k
trai ningen</w>
to i
tij en</w>
ti tel</w>
ti kt</w>
ti enen</w>
terug komt</w>
tel kens</w>
teke ningen</w>
tegen gekomen</w>
te gelijker
tegelijker tijd</w>
taf eltje</w>
t gene</w>
t alen</w>
struc tuur</w>
stofzui gen</w>
sto ffen</w>
sti mul
stel lingen</w>
ste lijk</w>
ste in</w>
staf bureau</w>
staa ts
st aart</w>
spree k
spr ingt</w>
spon sor
spi eren</w>
spe ct</w>
sp ulletjes</w>
ski a</w>
ser vies
se k
schul dig</w>
schoon gemaakt</w>
schijn baar</w>
scha de</w>
sch ijn</w>
sch el
sch anda
saa ie</w>
s laat
slaat .</w>
s interklaa
ron gen</w>
rij tje</w>
recor der</w>
rece ptie</w>
re ger
re chten</w>
ran zig</w>
ran g</w>
raa kt</w>
qu en
pu zzel
pro vo
prie ster</w>
pri kken</w>
po ten</w>
plan ning</w>
pl oegen</w>
pie p
paro chie</w>
par don</w>
pa kte</w>
p oot</w>
p ijn
ouweho eren</w>
ouderwe ts</w>
ou w
ou r</w>
ou l</w>
oren ce</w>
oplo ssen</w>
opge richt</w>
op staan</w>
op gek
op gegeven</w>
oni ki</w>
onderne mings
onder houden</w>
on i</w>
om roep</w>
o tte</w>
o b</w>
nis me</w>
ningin nedag</w>
nie t-
mu si
morgen middag</w>
mmel .</w>
mil ie
men tor</w>
mel den</w>
mee vallen</w>
medi cij
medicij nen</w>
me lijk</w>
mana gers</w>
mail tjes</w>
maan dagavond</w>
ma s
ma i
m inder
lo ssen</w>
li chten</w>
ler aren</w>
leer ling</w>
lang ste</w>
la sa
l aar
kun digen</w>
kra chten</w>
kr o</w>
koo i</w>
kom sten</w>
kno ppen</w>
klo kken</w>
kli kken</w>
klein tje</w>
kla ss
kl om
ki st</w>
kamer tje</w>
ka ra
k ee
jeugdher berg</w>
je mig</w>
jal o
jaar tje</w>
intervie w</w>
in geleverd</w>
in -
i tje</w>
i ende</w>
i ch</w>
hu welijk</w>
hoog ste</w>
hoo pt</w>
ho w</w>
ho rec
ho gere</w>
hier naartoe</w>
hier mee</w>
hier in</w>
heu vel</w>
her kennen</w>
handel d</w>
han de</w>
hal te</w>
h i</w>
gro t</w>
gr o</w>
gezel schap</w>
gevoe d</w>
gesch oten</w>
gesch e
gelui ds
ge dachten</w>
ge da
gaan de</w>
ga d
g ym
g re
g gen
fl y
fl uiten</w>
finan cieel</w>
fil o
fietsto cht</w>
f ris</w>
f re
f o</w>
f linke</w>
f it</w>
f ir
f ijn
f er</w>
exa men</w>
ex cur
er tussen</w>
er f</w>
er ende</w>
eni g</w>
ener gie</w>
en ze</w>
eigen aar</w>
eenen dertig</w>
e tte</w>
e mail</w>
e f</w>
du w
dremp el</w>
do centen</w>
din er</w>
dig heden</w>
di verse</w>
di tie</w>
di ger</w>
de ca
comment aar</w>
come dy
combin eren</w>
co de</w>
ci teit</w>
chri stelijke</w>
centr ale</w>
car ri
ca s</w>
c on</w>
bran dt</w>
boter ha
bor g</w>
boo tje</w>
boer derijen</w>
bo llen</w>
bo cht</w>
blo kken</w>
betaa lde</w>
bespre king</w>
beroe mde</w>
ber oerd</w>
benau wd</w>
beg ri
bedie ning</w>
bed ragen</w>
be vol
be trekken</w>
be steld</w>
be palen</w>
be kijk</w>
bb ie</w>
bab y's</w>
b lan
b in</w>
assi stent</w>
ambten aar</w>
als nog</w>
al t</w>
aflever ing</w>
afge studeerd</w>
afdel ingen</w>
af wachten</w>
adre ssen</w>
admini stratie</w>
achten tachtig</w>
ac o</w>
aardapp el
aan vragen</w>
aan recht</w>
a kk
Z war
Wil ko</w>
Wa ge
Ver a</w>
V a
V U
Too ts</w>
T ha
Sus an</w>
Ste fan</w>
Sa skia</w>
S tra
S -
Ru th</w>
Ra i
P in
P C</w>
O ran
O N</w>
Nederlan der</w>
NU ON</w>
Mon aco</w>
Mi ran
Maur its</w>
Marjo lein</w>
Mar leen</w>
Mar ij</w>
K E
Jo yce</w>
Je ff</w>
Jac k</w>
Itali aanse</w>
Il se</w>
I s
I ris</w>
I KE
Her man</w>
He ma</w>
HE MA</w>
H it
Go ff
Gel der
Ga mma</w>
Fl orence</w>
Fir enze</w>
F or
F in
Dui f</w>
Di eren</w>
Chri st
Ch ina</w>
CD 's</w>
C at
Arden nen</w>
Anne tte</w>
Alex ander</w>
A M
zu ur
zu ssen</w>
zon g</w>
zon den</w>
zij nen</w>
zesen negentig</w>
zelf stan
ze t
za r</w>
z z
z ont
y n</w>
y e
y -
wor tel</w>
wij d</w>
wee kje</w>
we sten</w>
we nen</w>
waar del
wa tte</w>
vrien din
voorzi tter</w>
vol g</w>
vo n</w>
vo ic
vie len</w>
verzeker d</w>
vert alen</w>
verra ssing</w>
vergelij king</w>
verd eeld</w>
ver zorg
ver bouwen</w>
vel e</w>
var kens</w>
v als</w>
uwe ku
uweku l</w>
uit kijken</w>
twijf el</w>
tu inen</w>
tt i</w>
ton g</w>
ton en</w>
toer isme</w>
toe stel</w>
toe standen</w>
to p
thuis kwam</w>
th er</w>
terug weg</w>
t oon</w>
t eert</w>
t allen</w>
str eng</w>
stij gen</w>
ster ker</w>
stel letje</w>
steen tjes</w>
ste kker</w>
stan d
stam pp
stad huis</w>
staan d</w>
st oot</w>
st om
st ing</w>
speel den</w>
speci f
sp aar
sol i
sno w
slaap zak</w>
sig n</w>
si er
senioren verenigingen</w>
schui m</w>
schij fje</w>
sche uren</w>
schap pe
schanda lig</w>
sch eef</w>
sch ee
sa vond</w>
rusti ger</w>
rui m
roo ster</w>
roo m
ro man
ro d
repeti tie</w>
regi o</w>
re k</w>
re chter</w>
r o</w>
r in
pun tjes</w>
prob eerde</w>
pro ce
pop ula
pom pen</w>
ple iding</w>
plan tjes</w>
plaat s
pl oeg</w>
pi t
pers on
per i
patin ten</w>
pan nen
paar den
pa u
pa pri
pa c
or t
opge zocht</w>
op maken</w>
op lei
op enen</w>
op end</w>
op bellen</w>
oor log
ont vangen</w>
ondernemings raad</w>
onder zoe
onder kant</w>
onder hand</w>
on a
om gek
om draaien</w>
nu t
ni cht</w>
mu li
mm i
min st</w>
ment ine</w>
men u</w>
mel d</w>
mee nt</w>
mee neemt</w>
mee gegaan</w>
medewer kers</w>
me ters</w>
me st</w>
ma ga
m u</w>
lun ch</w>
log ie</w>
lo n</w>
lijk ste</w>
lij f</w>
lie fde</w>
lei der</w>
leg aal</w>
le ge</w>
le a
laa g
la sti
la k</w>
l y</w>
l eerde</w>
kra p</w>
kopi ren</w>
koffie drinken</w>
koe kjes</w>
koe k</w>
ko uwe</w>
kno w</w>
klop te</w>
klo te</w>
klin kers</w>
klein ere</w>
kk el
kie st</w>
ker mis</w>
ker e</w>
kel tje</w>
kel s</w>
ka p
k son</w>
k je
k in</w>
ju ff
juff rouw</w>
journ aal</w>
jor n</w>
jo ker</w>
jalo ers</w>
j us</w>
is la
is en</w>
in schrij
in clusief</w>
huis jes</w>
hui dige</w>
hui d</w>
hori zont
hoog leraar</w>
hoeveel heid</w>
hier bij</w>
her ken</w>
her halen</w>
hel p</w>
hei lige</w>
hei d
he ftig</w>
hand doeken</w>
h op</w>
gra ven</w>
gord ijn</w>
gla s
gi dsen</w>
geze ik</w>
gev ulde</w>
get ik</w>
gesp annen</w>
gere s</w>
ger ookt</w>
gen er
geboe kt</w>
ge w</w>
ge ver</w>
ge lachen</w>
ge hangen</w>
gad ver</w>
ga ven</w>
g aas</w>
fla uwekul</w>
fig uren</w>
fi les</w>
f enis</w>
eu s</w>
eten tje</w>
er geren</w>
en ti
ein de
ein d
effe tjes</w>
ee k
e valu
e isen</w>
e conomie</w>
dubbel glas</w>
draa ide</w>
dr oeg</w>
donker e</w>
don 't</w>
domin ee</w>
dis crimin
diep vr
dien sten</w>
de m
da te</w>
d mi
cr me</w>
contro leren</w>
clo wn</w>
ch u
calor ien</w>
c ile</w>
c af
c ac
bu l</w>
bru to</w>
bor djes</w>
bo t</w>
bo ssen</w>
bloe me
bl u
bi zar</w>
bezi g
bet aling</w>
bee stje</w>
be wa
be ton</w>
be lo
b oord</w>
b i</w>
b ben</w>
av ond
arro gant</w>
apo the
an s</w>
achten negentig</w>
ac cent</w>
aardapp el</w>
aan sch
aan nemen</w>
aan han
aan gegeven</w>
a s
a re
a -
Win dows</w>
Wil ske</w>
Wage ningen</w>
Volks krant</w>
Ver hagen</w>
V el
V e
Tri vi
The ssal
T sje
T im</w>
T er
T al
Syl via</w>
S ur
Ru sland</w>
Roo sen
Re f
R en
Phi lip</w>
Paul ien</w>
P unt</w>
Oosten rijk</w>
O li
Nicol e</w>
N iek</w>
N eeltje</w>
Mu seum</w>
Miran da</w>
Mi d
Mex ico</w>
Matt hijs</w>
Mart ine</w>
Mar in
Mar co</w>
Maar tje</w>
Ma kro</w>
M er
Ly on</w>
L oes</w>
K al
Jap an</w>
Jac ob</w>
Jac kson</w>
Itali aans</w>
Indone si</w>
In ge</w>
Her mans</w>
H aar
G ra
G ouden</w>
Fri ts</w>
Fr eek</w>
Eri c</w>
Eg y
E vert</w>
DF E</w>
D ie
D ante</w>
Cor rie</w>
Cle mentine</w>
C -
B or
B jorn</w>
B ach</w>
Annem ieke</w>
An con
Amerik aans</w>
Al win</w>
1 0
zui pen</w>
zin ni
zil ver</w>
zes duizend</w>
ze il</w>
za kelijk</w>
za chter</w>
z and</w>
win t</w>
werk ten</w>
wel pen</w>
weg halen</w>
we st</w>
war den</w>
waa it</w>
w ond</w>
vre selijke</w>
voorberei d</w>
voor waarden</w>
voor raad</w>
voic email</w>
voe t
vla g</w>
vij ver</w>
vieren tachtig</w>
vier duizend</w>
verwa cht
verp laatst</w>
verd wenen</w>
verb onden</w>
ver plaatsen</w>
ver langen</w>
ver kou
ver ge
ver ba
vel s</w>
var ken
vall ing</w>
vakantie geld</w>
v uur</w>
v ul</w>
v loog</w>
v eer</w>
uit slag</w>
uit komen</w>
uit jes</w>
u t
u is</w>
u ders</w>
tween half</w>
ts hof</w>
ts en
tje .</w>
tie week</w>
tie ver</w>
tho n</w>
than k</w>
telefoon .</w>
tar is</w>
t- en-
t to</w>
t iek</w>
t an</w>
sur pr
su m</w>
stree pje</w>
stra f</w>
str alen</w>
sti tu
stee kt</w>
ste vi
ste mp
star ten</w>
stadi on</w>
sta ment</w>
st oo
st in</w>
st ier</w>
specif iek</w>
snel weg</w>
sne u</w>
slaap kamers</w>
situ aties</w>
sigar et</w>
scho t</w>
schil der</w>
schappe lijke</w>
schap pen
sch er</w>
sc ara</w>
s urd</w>
s lee
s lang</w>
s ha
s gi
sgi erig</w>
rusti ge</w>
roo kt</w>
ron dom</w>
roe ien</w>
ro y
ro er
ri cht
ren te</w>
reger ing</w>
recla me
rechtstree ks</w>
reag eert</w>
re kken</w>
re chter
qui z</w>
psy chi
ps el</w>
proje ct
profess i
proe ven</w>
prij s
pre mi
pp el
post kantoor</w>
porte mon
portemon nee</w>
plu kken</w>
pla t
pi llen</w>
peuterspeel zaal</w>
par tijen</w>
pa kjes</w>
p ru
p f</w>
p ees</w>
over spannen</w>
ouderwe tse</w>
ou djes</w>
ou d-
origin eel</w>
or e</w>
open bare</w>
opdra chten</w>
op zi
op zet</w>
oor delen</w>
oo sten</w>
oo f</w>
ontwikkel ings
ontwikk elen</w>
ont slagen</w>
onder zoeken</w>
on eerd</w>
ol ie</w>
oefe ningen</w>
oe ps</w>
o er
nu t</w>
nieuw sgierig</w>
ni st</w>
ni chtje</w>
negenen negentig</w>
negen honderd</w>
n st</w>
n ooi</w>
mu seu
mon teur</w>
mon deling</w>
mo menten</w>
miljar d</w>
mid den
mel o
mee gekregen</w>
mee doet</w>
me ga
mb o</w>
mar ke
mani eren</w>
mana gemen
mai la
ma ke-
ma gne
ma car
m s
m pi
loo n
liter atuur</w>
li tur
leu m</w>
lee fd</w>
le pel</w>
l l</w>
ksel derij</w>
krui s
kno pen</w>
kerst dag</w>
ke ur</w>
ke lijkheid</w>
katholie ke</w>
kan t-en-
kan aal</w>
ka tten
ka stjes</w>
k wa</w>
k uiten</w>
k shop</w>
k maar</w>
k aa
jaar s
ja zeker</w>
j ene
iss ing</w>
iso latie</w>
internation aal</w>
interess e</w>
inge pakt</w>
in zetten</w>
in woners</w>
in tjes</w>
in ci
il is
i m
i land</w>
i gheid</w>
i der</w>
honder den</w>
hon dje</w>
ho kje</w>
hier voor</w>
hie l
herken ning</w>
herhal ing</w>
he mel
he cht</w>
hand tekening</w>
han dige</w>
ha pp
ha p</w>
h uh</w>
gu n</w>
groe ten</w>
gra s
gra fie</w>
gord ijn
goe ie
geza men
gevoe gd</w>
gevan gen</w>
gev or
gev el</w>
gest orven</w>
gere ag
gereag eerd</w>
ger d</w>
gema k</w>
gel o</w>
geb less
ge zinnen</w>
ge sc
ge opend</w>
ge intje</w>
ge groeid</w>
ge control
gecontrol eerd</w>
g u</w>
g on</w>
functionerings gesprek</w>
fla ts</w>
fie tste</w>
fatso en
exac t</w>
er tjes</w>
er om</w>
er ingen</w>
elektri sche</w>
ei tje</w>
ei kel</w>
eeu warden</w>
eer ste
e x</w>
e ss</w>
ds el</w>
dru kte</w>
dra ma</w>
dou che
dor pjes</w>
door praten</w>
door lopen</w>
doo sje</w>
documen taire</w>
do chter
diri gent</w>
dien st
deta ils</w>
den de</w>
de genen</w>
de -
daar uit</w>
d eerd</w>
commer cieel</w>
comedy serie</w>
cijf erig</w>
ch ard</w>
cate gor
carna val
c u</w>
c teren</w>
c rea
c al</w>
bu sin
bre ien</w>
boter ham</w>
bo e</w>
bloe m</w>
blee kselderij</w>
blaa djes</w>
bewe ging</w>
beroe md</w>
berei kt</w>
ben zine</w>
ben a
belast ing
belangrij kste</w>
belangrij ker</w>
begele iding</w>
be weegt</w>
be valling</w>
be u
be stand</w>
be scha
be s</w>
be len</w>
batter ij</w>
ba kjes</w>
b oren</w>
b ber
autoo tje</w>
argu menten</w>
ar e</w>
an ts</w>
all i
ali stisch</w>
afge sloten</w>
af gezet</w>
acht honderd</w>
ab surd</w>
aansluit ing</w>
aan ra
aan komt</w>
a ss
a ma
a ir
a den</w>
Z oe
Z e
Z aan
Wor ld</w>
Wille m-
W ee
Vin cent</w>
V ries</w>
V &
V& D</w>
Ti tshof</w>
Thessal oniki</w>
Tha iland</w>
T wen
T essa</w>
Steen wijk</w>
Sp an
Se ba
SMS' je</w>
S ter
S jo
Ru ssi
Ro de</w>
Ro ck</w>
Rijks museum</w>
Ri chard</w>
Rai mon</w>
Ra y
R ijn</w>
Pa ra
N ell
Mor ris</w>
Mar gje</w>
Ma x</w>
M aas</w>
M a</w>
M E
ME AO</w>
Lisel otte</w>
L onden</w>
L eeuwarden</w>
Ker k
K or
K oe
K ir
K inder
Jan sen</w>
J oe
Is r
Hen ry</w>
H aan</w>
G roe
Ex cel</w>
Engel sen</w>
El mo</w>
El l</w>
E ra
E er
Dor is</w>
Doe sburg</w>
D al
D V
C om
Bo ur
Blo kker</w>
Bel g</w>
B uiten
B loe
B aan</w>
Au ke</w>
Ano uk</w>
Al kmaar</w>
AV RO</w>
A ll
A d</w>
A ar
A N
zui gen</w>
zoo itje</w>
zij ds</w>
zi ge</w>
zesti ende</w>
zesen vijftig</w>
zesen veertig</w>
zesen dertig</w>
zan geres</w>
za k
z ullie</w>
x t</w>
x amen</w>
woens dagmiddag</w>
wijf eld</w>
wha t</w>
wer en</w>
we t
water staat</w>
wagen tje</w>
wa zig</w>
wa ss
w h
vull ing</w>
vrou welijke</w>
vro ren</w>
vracht wagen</w>
voor mal
voor jaar</w>
voor ber
voor beelden</w>
vol houden</w>
vol gt</w>
vo o</w>
vlo t</w>
vla kken</w>
vil tjes</w>
vijfen tachtig</w>
verv elen</w>
vertaa lt</w>
verpleeg kundige</w>
verbin ding</w>
verb aas
verander ing</w>
ver zet</w>
ver z
ver wij
ver trokken</w>
ver lopen</w>
ver gele
vergele ken</w>
ver g
ver bouwd</w>
ve ge
van gt</w>
van g</w>
vakantie plannen</w>
v la</w>
v aa
ut ph
utph en</w>
us h</w>
un ie</w>
uit zonder
uit bre
u ppie</w>
twintig honderd</w>
tun nel</w>
tun ne
tunne ltje</w>
tu u</w>
tori um</w>
toi let
tje s
tie l</w>
ti lla</w>
ti ertje</w>
thermo staat</w>
terug gekomen</w>
terecht gekomen</w>
ter mijn</w>
ten nissen</w>
tegen komt</w>
te mp
te kend</w>
ta melijk</w>
ta k</w>
t ware</w>
t u</w>
subsi die</w>
stor ten</w>
sto k
stij gt</w>
ster e
sten en.</w>
ste vig</w>
star t
sta ge
ss isch</w>
sp oor</w>
sp innen</w>
snel heid</w>
sli mmer</w>
sla vin
sla p</w>
sinterklaa s
schu tting</w>
schri f
scho tel</w>
sch een</w>
sch a</w>
s op
s il
s enen</w>
s an
ru sten</w>
rou tes</w>
rol sch</w>
ro ld</w>
ro ddel
ri ght</w>
reis bureau</w>
regen de</w>
recht door</w>
re da
qui che</w>
prote stan
professi oneel</w>
process or</w>
pro vin
pro pt</w>
pro fie
prin ter</w>
pret tiger</w>
pr ik</w>
pp eren</w>
pen .</w>
para chu
par ti
pagin a's</w>
pa sje</w>
p ing
p eren</w>
over zien</w>
over komt</w>
op gevoed</w>
op gebouwd</w>
ontwikk eld</w>
onder ling</w>
onder aan</w>
on mogelijk</w>
on ken</w>
om ge
olij ven</w>
o 's</w>
nin k
nin e</w>
negenen veertig</w>
ne mer</w>
na r
musi cal</w>
mu m</w>
mu ggen</w>
moe ders</w>
mo gelijke</w>
mm ertje</w>
minidis c</w>
middel ste</w>
mi lli
mi llen
millen ni
mer t</w>
mer kte</w>
meen de</w>
mee gebracht</w>
me -
materi alen</w>
marke ting</w>
maila dres</w>
macar oni</w>
ma chtig</w>
lun ch
loe s</w>
lo w</w>
ll ig</w>
lij stjes</w>
li chter</w>
len gte</w>
lee fde</w>
le tte</w>
lasa gne</w>
lan gere</w>
la te</w>
la p
kwar tiertje</w>
ku s</w>
krui d</w>
kran tje</w>
kr ing</w>
kr en
kou de</w>
kor f
koffie zet
ko ppen</w>
ko misch</w>
kno pje</w>
kloo ster</w>
klo k.</w>
kla ssen</w>
kla ppen</w>
kla chten</w>
kl ussen</w>
kl ooien</w>
kk end</w>
kk a
kers kast</w>
kara k
ka psel</w>
ka p</w>
ka mpi
k t.</w>
k rit
k eerd</w>
k ale</w>
inge tje</w>
inge l</w>
indi zi</w>
in tu
in ten</w>
in s</w>
in gevuld</w>
in gesproken</w>
ij nen</w>
i et</w>
horizont aal</w>
hoofd stuk</w>
hoe s</w>
hier van</w>
her senen</w>
hel d</w>
heer lijke</w>
hee f</w>
he ven</w>
hand doek</w>
han g
ha ve</w>
h n</w>
h it
h en
gul dens</w>
grie p</w>
gr an
gol f
gister en
gisteren avond</w>
gigan tische</w>
geza kt</w>
get wijfeld</w>
gest oord</w>
gespre k
gesche urd</w>
gemeen schaps
gel eend</w>
gedeel telijk</w>
gebless eerd</w>
gebla zen</w>
ge studeerd</w>
ge stoken</w>
ge sneden</w>
ge sla
ge past</w>
ge go
ga st
g st</w>
g on
g lo
g ings
fy s
function eren</w>
for meerd</w>
fol der</w>
fil men</w>
f te</w>
f rie
f ab
eur s</w>
eten .</w>
er e
eni gste</w>
el de</w>
ei landen</w>
effe kes</w>
eenvou dig</w>
eenen daal</w>
du w</w>
dru gs</w>
disco theek</w>
direc tie</w>
di chter</w>
der tigste</w>
deks el</w>
deca dent</w>
de mo
daar zo</w>
da tgene</w>
da nig</w>
da ken</w>
da dig</w>
d'r naartoe</w>
d'r langs</w>
d'r heen</w>
d ste</w>
d onder</w>
cor din
contro le</w>
con se
con de</w>
comple x</w>
comm unie</w>
co g
citro en</w>
che mische</w>
ch ters</w>
ch ar
centr aal</w>
categor ie</w>
carri re</w>
ca se</w>
c ties</w>
c en</w>
buiten gewoon</w>
bu i</w>
bre der</w>
bow len</w>
boven ste</w>
bor stel</w>
boo m
bo de</w>
bier tjes</w>
bi tter
bet rokken</w>
beroe ps
berei d</w>
bemoe ien</w>
begrij pelijk</w>
begra fenis</w>
be wegen</w>
be tte</w>
be st
be keuring</w>
be ker</w>
be kenden</w>
be dden</w>
avon dje</w>
appar aatje</w>
apothe kerskast</w>
ang st</w>
ali teit</w>
al d</w>
ag re
af val
af spraken</w>
af f
ac ties</w>
aantre kkelijk</w>
aan staande</w>
aan leggen</w>
aa i</w>
a tief</w>
a ter</w>
a i</w>
Z wee
Z utphen</w>
Vlaa n
Vene ti</w>
V ic
V eenendaal</w>
Tij me</w>
Ta mar</w>
T ra
So fie</w>
Seba stiaan</w>
S toe
S pa</w>
S in
Russi sche</w>
Ru ssisch</w>
Roosen daal</w>
Rijks waterstaat</w>
Ref ter</w>
Ray mond</w>
Ra i</w>
R al
Pie tje</w>
Pa sen</w>
P ier
P er
P al
P -
Noor wegen</w>
Na ta
N eer
Mon te
Mo l</w>
Marj an</w>
Mar cel</w>
M ic
M eer
M al
Li d
Li a</w>
Krui d
Ko ninginnedag</w>
K i
Jacqu el
IJ ssel</w>
I s</w>
Hen nie</w>
H an</w>
Ger t-Jan</w>
Ge sproken</w>
Ge or
Ge mert</w>
G rolsch</w>
G ar
G A
Egy pte</w>
Eer ste</w>
E d</w>
E E
Dor ien</w>
Cor ry</w>
Car lo</w>
C ol
C O
C M
Br indizi</w>
Ber end</w>
Ba bette</w>
B ush</w>
B oom</w>
B la
An ja</w>
A tilla</w>
zevenen vijftig</w>
zevenen dertig</w>
zestien honderd</w>
zesen zeventig</w>
zeker e</w>
ze kers</w>
z u</w>
z ers</w>
z alen</w>
y c
wor tel
wor pen</w>
wor kshop</w>
woor d
woe stijn</w>
wo r</w>
wo gen</w>
wha te
whate ver</w>
wer p
wel kom</w>
weeken d
wee s</w>
war men</w>
wan deling</w>
waar dig</w>
waa id</w>
w oud</w>
w aan
vru chten</w>
vroe ge</w>
vrijwilli gers</w>
vriend schap</w>
vrien den
vre ten</w>
voorzi chtig</w>
voor zie
voor stelling</w>
voor rang</w>
voor del
volle y
voe gen</w>
vlieg veld</w>
vis eren</w>
vijf tig
vijf tienhonderd</w>
vieren zeventig</w>
video band</w>
vi r
verwa chting</w>
veront reini
verlie zen</w>
verkou den</w>
verko per</w>
verko chten</w>
verdiep ingen</w>
ver tje</w>
ver sum</w>
ver pakk
ver kie
ver goe
ver die
ver boden</w>
ve s</w>
vast houden</w>
va zen</w>
va ge</w>
va ca
v lees
v ij</w>
uit werken</w>
uit ste
uit rekenen</w>
uit maakt</w>
uit gevoerd</w>
uit gegeven</w>
uit gang</w>
twijf elen</w>
tween zestig</w>
tweedehan ds</w>
tuin kamer</w>
tu mor</w>
tt a</w>
ts elen</w>
tro ffen</w>
tre kker</w>
tra inen</w>
tr uitje</w>
tr isch</w>
tr aal</w>
toma ten</w>
toma ten
toe ts</w>
tijd schrift</w>
ti c
ter ie</w>
ter a</w>
temp o</w>
tegeno p</w>
tegen komen</w>
te ken
te gel
tap e</w>
tae- bo</w>
ta sje</w>
ta ken</w>
t t</w>
t land</w>
t j
t hu
t ha
sver dui
sverdui stering</w>
stu g</w>
stroo mt</w>
stri d</w>
str ook</w>
str o</w>
str and
str an
str aling</w>
stor t</w>
stor m</w>
stop te</w>
stofzui ger</w>
stin kt</w>
stil te</w>
sti c
stel en</w>
stei ger</w>
ste den
staur eerd</w>
stap te</w>
stap eltje</w>
stan bul</w>
stampp ot</w>
st on</w>
spij kers</w>
spi ts</w>
sof tware</w>
snow boar
slo kje</w>
sli kken</w>
sle s</w>
sle pen</w>
sla gr
sin aas
sil ence</w>
sho w</w>
sh or
ser va
seni oren</w>
sen al</w>
se conde</w>
schil derij
schil der
schi kken</w>
sche pje</w>
sch oppen</w>
sch op</w>
sch one</w>
sch ande</w>
sch aar</w>
sch aak</w>
sc ou
sc annen</w>
sa mme</w>
s p</w>
s me</w>
s ja</w>
s ies</w>
rui ken</w>
ru ba</w>
rond jes</w>
ro mmelen</w>
ro man</w>
ro kk
rela tief</w>
rela tie
regen en</w>
regel t</w>
re spect</w>
re m</w>
re ken
re alis
qu es</w>
provo ceren</w>
produc tie</w>
pr entje</w>
postze gel</w>
politie serie</w>
pol is</w>
po tjes</w>
pl a</w>
pi ttig</w>
pi kt</w>
persoon s
per man
pe tje</w>
papri ka</w>
pac ci
paar s</w>
p in</w>
p ijnlijk</w>
over last</w>
opper vlakte</w>
opge slagen</w>
opge pakt</w>
op vol
op voe
op stelling</w>
op houden</w>
op geven</w>
op ende</w>
oor spron
oor den</w>
ontde kt</w>
ont houd</w>
onder delen</w>
on weer</w>
on voldoende</w>
on ne</w>
on getwijfeld</w>
on gelu
ol o</w>
off ic
oe f</w>
o w
no teren</w>
ni a</w>
negenen dertig</w>
ne ss</w>
naa ien</w>
na uw</w>
na uw
na jaar</w>
n ood</w>
n -
mo u
mo s</w>
mo menteel</w>
mo l
mm eren</w>
mil jo
mi ts</w>
mi et</w>
meu bels</w>
mer k
mee gedaan</w>
me tro</w>
managemen t
man ci
make- up</w>
magne tron</w>
ma y
ma tje</w>
ma tisch</w>
ma te</w>
logi stiek</w>
lo gische</w>
lin ks
lief heb
li ften</w>
leven de</w>
les geven</w>
le u</w>
lap top</w>
langza mer</w>
land bouw
la ppen</w>
l y
l weg</w>
l ens</w>
kwar tje</w>
krui den</w>
krit iek</w>
kr oe
kr aa
kou sen</w>
kor t
koor ts</w>
kom ko
koffiezet apparaat</w>
koe kje</w>
koe ken</w>
ko ko
kne tter
kn al</w>
kn al
kli mop</w>
klan k</w>
kl onk</w>
kilo meters</w>
keur ige</w>
ker vel</w>
ker tje</w>
ke nis</w>
ka de</w>
k se
journ ali
jon gere</w>
jene ver</w>
jee p</w>
j o</w>
iss ingen</w>
irri tante</w>
inve steren</w>
inhou delijk</w>
inge steld</w>
ing ste
in gegaan</w>
in der</w>
ij en</w>
ie ven</w>
i den
huis arts</w>
hou tje</w>
horec a</w>
hoog begaa
hoofd pijn</w>
honderd duizend</w>
hoef den</w>
hoe ver</w>
hoe ve</w>
ho ning</w>
hier onder</w>
hier naast</w>
herinn ering</w>
her kent</w>
her kende</w>
her e</w>
hell ing</w>
he kje</w>
he ffen</w>
har ingen</w>
handi ger</w>
han deling</w>
haa sten</w>
haa s</w>
haa l
ha kken</w>
h eren</w>
h aar
groe p
groe i</w>
graa f</w>
god samme</w>
go d</w>
gin ds</w>
gewi ld</w>
gewel d
gev aren</w>
gev aar</w>
gesp rongen</w>
gesp e
gesla cht</w>
gesc oord</w>
gere staureerd</w>
geloo ft</w>
gedu urd</w>
gebr and</w>
ge moti
ge moeten</w>
ge ka
ge in</w>
ge hoopt</w>
ge e</w>
ge droo
gan s</w>
gaa tje</w>
g n
g jes</w>
func ties</w>
for muli
fo r</w>
flexi bel</w>
fiet sp
fanta stische</w>
fac ul
f ru
f pot</w>
f oon</w>
f ik</w>
excur sie</w>
exa men
eventu ele</w>
even e
euro 's</w>
er aar</w>
envel oppen</w>
enti um</w>
eni se</w>
en huis</w>
en burg</w>
eli x</w>
elf honderd</w>
ei lan
eff ic
eer gister</w>
duiz enden</w>
dui ken</w>
dru ppel</w>
dru kke</w>
drij ks
dr oe
dr id</w>
doordewee ks</w>
door gang</w>
discu ss
diepvr ies</w>
di ale
der ing</w>
de pre
de ment</w>
dam bulance</w>
da tzelfde</w>
da l</w>
d'r naar</w>
d'r doorheen</w>
d' orange</w>
d isch</w>
d iek</w>
d ge</w>
ct iek</w>
crimin eel</w>
cre di
concur ren
con serva
colle ges</w>
co ur
club je</w>
cir cus</w>
cijf er</w>
ci ale</w>
cen tri
ce tera</w>
carnaval s
cara van</w>
car pacci
ca via</w>
c om</w>
c an
busin ess</w>
buitenlan dse</w>
buitenlan ders</w>
brui dje</w>
boven aan</w>
bos wa
bood schappen
bol letjes</w>
bo xen</w>
bo ten</w>
blo k
blin de</w>
bla den</w>
bla blabla</w>
bij en</w>
bie f
bi as</w>
bete kenis</w>
bestuur der</w>
besl uit</w>
beri chtje</w>
bere kend</w>
bemoe i</w>
bedoe len</w>
be zwaar</w>
be zorgen</w>
be vroren</w>
be vallen</w>
be schrijven</w>
be handeld</w>
be e</w>
be dambulance</w>
bbel s</w>
bal kon
bal ie</w>
ba k
ba ga
ba c
b y
b u</w>
b alletje</w>
ari um</w>
ar tsen</w>
ar tie
ar aat</w>
an ca</w>
ambten aren</w>
alumini um</w>
afstan ds
af zetten</w>
af sluiten</w>
af fen</w>
ad vies
ad on
acht ste</w>
ach ten</w>
ac teur</w>
ab sei
aard be
aanra king</w>
aan val</w>
aan gelegd</w>
aa d</w>
a k
a gent</w>
Wor d</w>
Wille m
Wilhel mina</w>
W op
W onen</w>
W o
W is
W aal</w>
W W</w>
Vlaan deren</w>
U r
To ine</w>
To bias</w>
T j
T hie
T an
Si mon</w>
S tr
S ti
S pr
S ha
S al
Ren a
R olf</w>
R ens</w>
Pa tras</w>
P y
P u
P la
P entium</w>
P T
O r
Nieuw -
Nel leke</w>
Ne w
Nan cy</w>
N 0
Mart ha</w>
Mar loes</w>
Mar iska</w>
Mar gr
Ma rokk
Ma drid</w>
M n
M adon
M P
Lei d
L ieke</w>
Keu len</w>
Kar in</w>
K ui
K ol
K le
Juli ana</w>
Jo an</w>
Je an</w>
Jan nes</w>
Isr al</w>
I stanbul</w>
I B
Hul l</w>
Hu go</w>
Han neke</w>
Haar le
H eer
H art</w>
H BO</w>
Goff ert
Goe de</w>
Ger rit</w>
GA K</w>
G raa
G la
G eer
Fri th</w>
Fran c
F le
F elix</w>
Europe se</w>
Eg on</w>
E mmen</w>
E dith</w>
Dor p</w>
Den nie</w>
Dani lle</w>
D ru
D oor
D is
D enise</w>
Cla u
Cal las</w>
Ca sper</w>
C on
C o</w>
Bi ologie</w>
Bi anca</w>
Bel gen</w>
Be mmel</w>
B S</w>
Ar senal</w>
Ar ie</w>
Ancon a</w>
Amster dam
Ale tte</w>
A strid</w>
A ruba</w>
A 4
zwan ger
zomer vakantie</w>
zogenaa mde</w>
zo danig</w>
zin loos</w>
zij den</w>
ziekte wet</w>
zen der</w>
zel den</w>
ze ssen</w>
zater dags</w>
zan ne</w>
zaa kt</w>
za kt</w>
z eep</w>
z aag</w>
y a</w>
woens dagavond</w>
wo ning
wie len</w>
wie l
wer kelijkheid</w>
wer e</w>
wel nee</w>
we ke
wal kman</w>
waar heen</w>
w onder</w>
vrou wen
vriendin netje</w>
vrie zer</w>
vraag teken</w>
vr e</w>
voorzie ningen</w>
voorber eiden</w>
voor spel
voor naam</w>
voor lichting</w>
voor heen</w>
voor gesteld</w>
voor deur</w>
vlu g</w>
vin gen</w>
vieren negentig</w>
vier t</w>
vice -
vi ce</w>
verzamel d</w>
versi eren</w>
verpleeg kundigen</w>
verm oord</w>
vergoe ding</w>
vergader ingen</w>
verd waa
verbaas d</w>
verantwoorde lijkheid</w>
ver zicht</w>
ver zetten</w>
ver ze
ver werkt</w>
ver tra
ver tegenwoor
ver sla
ver rot</w>
ver koopt</w>
ver delen</w>
ver branden</w>
ven s</w>
vel tje</w>
ve -
varken s
va kje</w>
va ders</w>
v l
v -
ur en
uitge zocht</w>
uiter ste</w>
uit leg</w>
uit kiezen</w>
uit ing</w>
uit gerekend</w>
uit geb
uit dru
u ter
u g</w>
ty pische</w>
tur e</w>
ts ch</w>
tran scri
tra pt</w>
tr oon</w>
tr ee
toneel spelen</w>
toff els</w>
toff e</w>
toen ter
toenter tijd</w>
toe stemming</w>
to et</w>
tion eel</w>
tij delijk</w>
tig heid</w>
thuis zorg</w>
ter m</w>
ter ing
ten en</w>
ten .</w>
telef oons</w>
tech nisch</w>
te sse</w>
te -
taxi chauffeur</w>
tar ief</w>
tar e</w>
ta ssen</w>
ta ctiek</w>
ta b
t r</w>
t ner</w>
t jeetje</w>
t is
t eer</w>
t een</w>
t ach
sul t
stu ken</w>
stro p
strij ken</w>
stre ssen</w>
stra kke</w>
stoe l
stin ken</w>
sti pp
stel beers</w>
stap je</w>
standaar d
st mis</w>
st eerd</w>
st allen</w>
st aartje</w>
st -
ss o</w>
ss elen</w>
spel le
spe k</w>
spar tner</w>
sp ons</w>
sp lein</w>
soe sjes</w>
so fie</w>
snoe p</w>
sne a
sma kelijk</w>
slo ffen</w>
sli m
sleu tels</w>
sle chter</w>
slan k</w>
slagr oom</w>
sj ouwen</w>
schri kt</w>
schoon maak
schoen tjes</w>
schitter ende</w>
schij f</w>
scher men</w>
schel den</w>
schei kunde</w>
schei ding</w>
sau sje</w>
samen va
s nu
s maken</w>
s liep</w>
s her
s er</w>
s anda
sanda len</w>
ru st
rou te
rij ven</w>
ri am</w>
ren da
reden en</w>
recen sie</w>
rec t</w>
re to
re ke
re chte</w>
re alistisch</w>
ran d
radi ator</w>
ra m</w>
r ingen</w>
psychol oog</w>
promo tie</w>
proe f</w>
produc ten</w>
probl ee
pri kt</w>
premi re</w>
pre i</w>
pr o</w>
pp e
posi tieve</w>
por t</w>
ple zi
plat form</w>
plan ner</w>
pla k</w>
pin pas</w>
pi tten</w>
pi on</w>
pi er
pi a
person eel
pe kan
pekan j
part y</w>
part time</w>
parkeer plaats</w>
paar den</w>
pa ste</w>
pa sta</w>
pa s
pa dde
p ten</w>
p oos</w>
p ond</w>
p h</w>
p and</w>
over nachten</w>
over he
ou kje</w>
organis eert</w>
opzi chte</w>
opge steld</w>
opge houden</w>
opge heven</w>
op tre
op rit</w>
op pe</w>
op bouw</w>
oor tje</w>
ont spannen</w>
onge rust</w>
onder uit</w>
onder ste</w>
onder houd</w>
on mar</w>
on duidelijk</w>
om laag</w>
om gevallen</w>
ochten d
ob je
no va</w>
no ta</w>
no ch</w>
nieuw jaar</w>
nie s</w>
net to</w>
ne ur
ne p
naa ld</w>
naa i
na gel
na gekeken</w>
n lo
n del</w>
mul ti
moder n</w>
mo sselen</w>
mo du
mmi ku
millenni um
miljar den</w>
mi x</w>
mi au
met ho
met aal</w>
mer hand</w>
men tor
men ten
men sa</w>
meis ke</w>
mei dje</w>
mee t</w>
mee gaat</w>
maatschapp elijk</w>
maan dje</w>
maa tje</w>
ma tie</w>
ma kelaar</w>
ma ger</w>
m pt</w>
m ond
m iel</w>
lun chen</w>
lop end</w>
ll o</w>
ll ige</w>
lijk heden</w>
lie ten</w>
licht ingen</w>
li ve</w>
leu kere</w>
lei dt</w>
lee d</w>
le mat</w>
langza merhand</w>
land schap</w>
lan dse</w>
l us</w>
kunsten aar</w>
krui sje</w>
kr ie
kop ie</w>
koff er</w>
koe pel
koe kie</w>
knu ff
klin ken</w>
klein kind</w>
kle m</w>
kk eren</w>
ki kker</w>
kerst pakket</w>
ker sen
ker n</w>
ken state</w>
ken nis
ken burg</w>
kee per</w>
ke y
ke tten</w>
ke tb
kar retje</w>
kap stok</w>
kan en</w>
kampi oen</w>
kaar t
ka ft</w>
ka bin
k werk</w>
k ru
k ook</w>
k huis</w>
jui ste</w>
ju f</w>
jo b</w>
jar en
jaar tal</w>
ja m</w>
j uni
j aa
it y</w>
intelli gent</w>
initi atief</w>
ing spro
infor meren</w>
in spreken</w>
in i</w>
in gezet</w>
in er</w>
ie l
ic an</w>
i a</w>
hu urt</w>
hou ders</w>
hobb y's</w>
hier op</w>
hie lden</w>
hi ts</w>
her indeling</w>
har moni
hand schoenen</w>
haa lden</w>
ha pje</w>
h int</w>
h aard</w>
gra sma
gra f
goud kaart</w>
goed ge
goedge keurd</w>
go e</w>
gi llen</w>
gezo end</w>
geweld dadig</w>
gesch ui
gesch rokken</w>
gerits el
geritsel .</w>
gemeenschaps huis</w>
gel tje</w>
gel dig</w>
gehu urd</w>
gehandicap t</w>
geboor te
ge volgen</w>
ge ur</w>
ge teld</w>
ge stapt</w>
ge plakt</w>
ge niet</w>
ge con
ge accep
gal a</w>
ga pen</w>
g repen</w>
g r</w>
g oor</w>
g aar
fra g
fou tje</w>
formul e</w>
fl uit
fil mpjes</w>
fiets je</w>
famil ie
fa vor
fa brie
f ul</w>
f s</w>
f ond
f er
ex tra
ex positie</w>
ex plo
ex peri
erger t</w>
en tree</w>
eenen vijftig</w>
e- mailadres</w>
e t
e cono
duur ste</w>
ds blad</w>
dru kkerij</w>
dru kker</w>
drijks kunde</w>
drie duizend</w>
dow nlo
doordewee kse</w>
door geven</w>
dochter tje</w>
dis k</w>
dieren arts</w>
di kker</w>
deur tjes</w>
der tig
den -
demo cra
deel s</w>
de ken</w>
de gelijk</w>
d ka</w>
d heden</w>
d ding</w>
con su
con struc
con ne
cog na
co urt</w>
co l</w>
cir c
circ uit</w>
cho cola</w>
centri fu
cel len</w>
camer a's</w>
c tief</w>
c oun
c ing</w>
c col
c an</w>
bul ten</w>
buiten .</w>
bud get</w>
brug getje</w>
broo d
bro mmers</w>
bro ccol
bree d
bra k</w>
boven kant</w>
boven af</w>
boterha mmen</w>
bood schap</w>
boo mpjes</w>
boo g</w>
boek houding</w>
blo te</w>
bla zen</w>
bijeen komst</w>
bij houden</w>
bie chten</w>
beveili ging</w>
besl issen</w>
beroe m
berei ken</w>
begrij pt</w>
beel d
be zorgd</w>
be zit</w>
be zet</w>
be wijzen</w>
be ur
be stond</w>
be ssen</w>
be schrijving</w>
be leefd</w>
be langen</w>
be iden</w>
be denkt</w>
bbe len</w>
bbe ld</w>
bas ketb
barbecu e</w>
ban kjes</w>
ban d
b bel</w>
b aard</w>
b aan
arbeids markt</w>
ap arts</w>
alle tjes</w>
alle lweg</w>
al do</w>
akk oord</w>
afstands bediening</w>
af was</w>
af gemaakt</w>
af geleid</w>
acht duizend</w>
aan wij
aan vallen</w>
aan hal
a ve</w>
a ten</w>
Zwar te</w>
Z oom</w>
Z a
Wit- Rus</w>
Wis kunde</w>
Willem- Alexander</w>
Wille ke</w>
Wil s</w>
Wi llie</w>
We st</w>
Wa ter
W an
Vier daagse</w>
Vi tesse</w>
Ver eni
V rij
V ier</w>
V I
Thie u</w>
T wo</w>
T wi
T oon</w>
T her
Syl vie</w>
Su zanne</w>
Stoe lemat</w>
Ste ven</w>
Sta dsblad</w>
Sj an</w>
Scho tland</w>
S par
S nee
S cra
Ru ben</w>
Ro me
Rem brandt</w>
Ra oul</w>
R oos</w>
R ooi</w>
R ita</w>
R ie
R T
Pe ters</w>
Pe scara</w>
PA BO</w>
P op
P ool</w>
P h
Olympi a</w>
Nieuw- Zeeland</w>
Nie uwe</w>
Nic ky</w>
N eu
Min ie</w>
Mi ke</w>
Mi a</w>
Men no</w>
Maur ice</w>
Mar jor
M ol
M BO</w>
Lu cas</w>
Lo et</w>
Leu ven</w>
La ge</w>
L isa</w>
L ies</w>
L a</w>
Kruid vat</w>
Koo men</w>
Kir sten</w>
Ker stmis</w>
Ke vin</w>
Kam pen</w>
Ka rel</w>
K reta</w>
K onmar</w>
K no
K leef</w>
K el
John nie</w>
Jo han
Jacquel ien</w>
In di
I erland</w>
I C
Hoe ve</w>
Ho tel</w>
Ho ge
Hil versum</w>
Han nie</w>
HB O-
H ndel</w>
Gu us</w>
Groe s
Go gh</w>
Gi ds</w>
Ge nova</w>
Ge b</w>
G au
Fri ends</w>
F ortu
Eri ka</w>
Era s
El f
Ei kenstate</w>
E miel</w>
Do ro
Die ver</w>
Dan ny</w>
D ijk</w>
Cu ijk</w>
Christ ina</w>
Chri stie</w>
C lub</w>
C iska</w>
C ho
C ha
C AO</w>
C 10
C10 0
C100 0</w>
Bro ther</w>
Bo er</w>
Bar end</w>
Ba ta
B ou
B oe
B ee
B an
B al
B T
Anne lies</w>
Amster da
All er
Al ber
Afri k
A n</w>
A O
A B
-uh- dingen</w>
zwaar dere</w>
zui nig</w>
zui d
zu sters</w>
zonne bril</w>
zon netje</w>
zoe te</w>
zo wel</w>
zo doende</w>
zin netjes</w>
zie ken</w>
zi chten</w>
zevenen negentig</w>
zeven tiende</w>
zestig duizend</w>
zesti gste</w>
zelf verzeker
zee -
zaa kje</w>
z wijn</w>
z wi
z waaien</w>
z eren</w>
z aal
y p
y our</w>
y lon</w>
xi ma</w>
wor tels</w>
won gen</w>
wol k</w>
wiss eling</w>
win ters</w>
wi ssen</w>
wi s
weten schappelijk</w>
wer ker</w>
wer ij</w>
wer el
weer stand</w>
weer man</w>
war d</w>
wan d</w>
wa staf
wa h</w>
wa f</w>
vru cht
vrouw ke</w>
vrij wel</w>
vrij dagochtend</w>
vr oor</w>
voor keur</w>
voor delen</w>
volu tie</w>
volle dige</w>
vol op</w>
vo erd</w>
vo e</w>
vloer bede
vloerbede kking</w>
vlo gen</w>
vlieg tui
vijf tiende</w>
vijf duizend</w>
vijf -</w>
vie w</w>
vi tr
vi ta
vi lle</w>
vertra ging</w>
vermoe delijk</w>
verlen gd</w>
verkie zingen</w>
verde digen</w>
verbin dingen</w>
verbe teren</w>
verantwoor delijk</w>
ver werken</w>
ver we
ver trouwd</w>
ver trouw</w>
ver stopt</w>
ver staan
ver spre
ver sne
ver mogen</w>
ver kla
ver kl
ver ho
ver groot</w>
ver bouw
veili ger</w>
veer tiende</w>
ve ter
ve t
ve e</w>
van door</w>
val i
vakantie werk</w>
vakan ties</w>
vak groep</w>
va ten</w>
v laa
ur gen</w>
ull en
ul t</w>
ul en</w>
uitste kend</w>
uit voeren</w>
uit gesch
uit gekomen</w>
uit gaat</w>
uit betaald</w>
u x</w>
ty pt</w>
twintig duizend</w>
tween tachtig</w>
twaalf honderd</w>
tu ss
tu l
tu ele</w>
tu eel</w>
ts er
tru t</w>
trouw de</w>
tri bu
tre in
tre ffen</w>
tra u
toeri stische</w>
toeri sten</w>
toer nooi</w>
toen der
toender tijd</w>
to ur
to meter</w>
to maat</w>
tij n
tien tallen</w>
tie ven</w>
ti one
tione le</w>
thuis komt</w>
thuis blijven</w>
ter tje</w>
ter ig</w>
ten tje</w>
ten nis
ten aar</w>
tele fo
tel ing</w>
teke nin
tech nische</w>
team s</w>
te ment</w>
te gr
te geni
tegeni n</w>
taf els</w>
t ine</w>
t een
t ch
suc ce
su kk
stud eerkamer</w>
strop das</w>
sto r</w>
sto kjes</w>
sto kje</w>
stil tes</w>
sti k
sti ge</w>
stevi ge</w>
ster ke</w>
steden tocht</w>
staan der</w>
sta ti
st onk</w>
st ieke</w>
ssen heim</w>
spraak herkenning</w>
speci ali
spec ta
span ningen</w>
sp uit
sp li
sp aar</w>
slo tte</w>
sli st</w>
sli mme</w>
sigare tje</w>
sier aden</w>
sha g</w>
se a</w>
schui f
schroe ven</w>
schri kken</w>
schoon zusje</w>
schoon zus</w>
schoo no
schoono uders</w>
schee lde</w>
sche ppen</w>
sche i</w>
scha tten</w>
scha duw</w>
sch ouder</w>
sch op
sc oort</w>
samen werking</w>
samen werken</w>
sa tie</w>
s- in-
s-in- lood</w>
s straat</w>
s st</w>
s mi
s eren</w>
s ci
rui se</w>
roo m</w>
rond leiding</w>
rol letjes</w>
rod delen</w>
ro erend</w>
rit me</w>
ri et</w>
ri dder
reu ma</w>
repe teren</w>
reda ctie</w>
re tjes</w>
re le</w>
re fle
re dt</w>
re ch
race fiets</w>
raa d
r y
r uit</w>
r aars</w>
pu p</w>
promo veren</w>
produc eren</w>
pro to
prin ten</w>
pri or
presen teren</w>
pra cti
pr ui
pp i</w>
post bode</w>
por tier</w>
poo tjes</w>
pon tje</w>
pol i</w>
po kken
ple kke</w>
ple gen</w>
plan kje</w>
pla tte
pla ten
peta ssie</w>
pekanj er</w>
pe ti
pe sto</w>
pe dag
pan toffels</w>
pan nen</w>
paar se</w>
paar d
p it</w>
p ff</w>
p end</w>
over zicht</w>
over morgen</w>
over heid</w>
over gaan</w>
optre dens</w>
opge geten</w>
op vangen</w>
op ties</w>
op neemt</w>
op gemaakt</w>
op gave</w>
oor t
oor sprong</w>
oo ms</w>
oo d
ontbij ten</w>
ont stoken</w>
ongelu kken</w>
ong festival</w>
onder handelen</w>
on s
on neke</w>
on middel
onmiddel lijk</w>
on begrijpelijk</w>
on aardig</w>
omgek eerd</w>
om kleden</w>
om i</w>
om el
omel et</w>
offic ile</w>
of wel</w>
oef bij
o v</w>
o re
o no
o ci
no r</w>
ni er</w>
ne ven</w>
na tte</w>
na pt</w>
na gerecht</w>
n oot</w>
muzi kaal</w>
mun ten</w>
mui zen</w>
moo is</w>
mono pol
mo toren</w>
mo len</w>
mo dem</w>
mis gegaan</w>
mili tair</w>
men tje</w>
mel tje</w>
mel ken</w>
mee -
me sje</w>
mar s</w>
manci p
mail t</w>
maga zijn</w>
mach ini
maa ien</w>
ma tra
ma p</w>
ma a</w>
m re</w>
m per</w>
m ijn
m alen</w>
loo pje</w>
lo t</w>
lli et</w>
lin ker
lij n
lief ste</w>
lie verd</w>
li miet</w>
leg de</w>
le y</w>
le x</w>
le on</w>
lan delijk</w>
laar zen</w>
laa gd</w>
la dder</w>
l ou</w>
l or
l ing
kwa lijk</w>
kui ken
ku ur</w>
ku m</w>
kra t</w>
korf bal</w>
ko nink
kni en</w>
kna ppe</w>
klom pen
klo ten</w>
kli mmen</w>
kleur tjes</w>
kle i</w>
klass ieke</w>
kl us</w>
kker d</w>
ki r</w>
key board</w>
keu kens</w>
ker n
ken .</w>
ke uren</w>
kar ten</w>
kangoer oe</w>
kamp eren</w>
kal fjes</w>
kaar sen</w>
kaar s</w>
ka st
ka ppen</w>
ka bel
k ruik</w>
ju bi
jubi leum</w>
jaar den</w>
ja t</w>
it st</w>
iss ig</w>
is es</w>
inten sief</w>
instru ment</w>
industr ie</w>
inder t</w>
in tegr
in stellen</w>
in stall
in schrijven</w>
in kopen</w>
in genomen</w>
il al
ij zer</w>
ij ten</w>
ie -
i st</w>
i sche</w>
i lliet</w>
huishoud school</w>
huishou delijke</w>
huis kamer</w>
hui ld</w>
hou se
hor en.</w>
hoog seizoen</w>
hoofd gerecht</w>
hoo i</w>
hon den
hoe dje</w>
ho o</w>
ho kken</w>
hier achter</w>
hiel p</w>
her stellen</w>
heen weg</w>
hec tometer</w>
hec tare</w>
he te</w>
hard op</w>
har ing</w>
ham ster</w>
